{
  "version": "1.0",
  "truncation": null,
  "padding": null,
  "added_tokens": [
    {
      "id": 0,
      "content": "<pad>",
      "single_word": false,
      "lstrip": false,
      "rstrip": false,
      "normalized": false,
      "special": true
    },
    {
      "id": 1,
      "content": "<start>",
      "single_word": false,
      "lstrip": false,
      "rstrip": false,
      "normalized": false,
      "special": true
    },
    {
      "id": 2,
      "content": "<end>",
      "single_word": false,
      "lstrip": false,
      "rstrip": false,
      "normalized": false,
      "special": true
    },
    {
      "id": 3,
      "content": "<unk>",
      "single_word": false,
      "lstrip": false,
      "rstrip": false,
      "normalized": false,
      "special": true
    }
  ],
  "normalizer": null,
  "pre_tokenizer": {
    "type": "Whitespace"
  },
  "post_processor": null,
  "decoder": null,
  "model": {
    "type": "BPE",
    "dropout": null,
    "unk_token": "<unk>",
    "continuing_subword_prefix": null,
    "end_of_word_suffix": null,
    "fuse_unk": false,
    "byte_fallback": false,
    "ignore_merges": false,
    "vocab": {
      "<pad>": 0,
      "<start>": 1,
      "<end>": 2,
      "<unk>": 3,
      "!": 4,
      "\"": 5,
      "#": 6,
      "$": 7,
      "%": 8,
      "&": 9,
      "'": 10,
      "(": 11,
      ")": 12,
      "*": 13,
      "+": 14,
      ",": 15,
      "-": 16,
      ".": 17,
      "/": 18,
      "0": 19,
      "1": 20,
      "2": 21,
      "3": 22,
      "4": 23,
      "5": 24,
      "6": 25,
      "7": 26,
      "8": 27,
      "9": 28,
      ":": 29,
      ";": 30,
      "<": 31,
      "=": 32,
      ">": 33,
      "?": 34,
      "@": 35,
      "[": 36,
      "]": 37,
      "^": 38,
      "_": 39,
      "`": 40,
      "a": 41,
      "b": 42,
      "c": 43,
      "d": 44,
      "e": 45,
      "f": 46,
      "g": 47,
      "h": 48,
      "i": 49,
      "j": 50,
      "k": 51,
      "l": 52,
      "m": 53,
      "n": 54,
      "o": 55,
      "p": 56,
      "q": 57,
      "r": 58,
      "s": 59,
      "t": 60,
      "u": 61,
      "v": 62,
      "w": 63,
      "x": 64,
      "y": 65,
      "z": 66,
      "{": 67,
      "|": 68,
      "}": 69,
      "~": 70,
      "£": 71,
      "«": 72,
      "°": 73,
      "²": 74,
      "³": 75,
      "·": 76,
      "»": 77,
      "½": 78,
      "¾": 79,
      "à": 80,
      "á": 81,
      "â": 82,
      "ã": 83,
      "æ": 84,
      "ç": 85,
      "è": 86,
      "é": 87,
      "ê": 88,
      "ë": 89,
      "ì": 90,
      "í": 91,
      "ñ": 92,
      "ó": 93,
      "ô": 94,
      "ö": 95,
      "ø": 96,
      "ú": 97,
      "ü": 98,
      "ā": 99,
      "ć": 100,
      "đ": 101,
      "ē": 102,
      "ė": 103,
      "ę": 104,
      "ī": 105,
      "ł": 106,
      "ō": 107,
      "ś": 108,
      "š": 109,
      "ū": 110,
      "ź": 111,
      "ž": 112,
      "ș": 113,
      "ɑ": 114,
      "ɕ": 115,
      "ə": 116,
      "ɛ": 117,
      "ɪ": 118,
      "ɾ": 119,
      "ʒ": 120,
      "ʿ": 121,
      "ˈ": 122,
      "ː": 123,
      "͡": 124,
      "ή": 125,
      "α": 126,
      "β": 127,
      "ε": 128,
      "θ": 129,
      "ι": 130,
      "κ": 131,
      "μ": 132,
      "ν": 133,
      "ω": 134,
      "أ": 135,
      "ا": 136,
      "ب": 137,
      "ت": 138,
      "ح": 139,
      "خ": 140,
      "د": 141,
      "ر": 142,
      "ز": 143,
      "س": 144,
      "ص": 145,
      "ض": 146,
      "ف": 147,
      "ق": 148,
      "ل": 149,
      "م": 150,
      "ن": 151,
      "و": 152,
      "ى": 153,
      "ي": 154,
      "अ": 155,
      "द": 156,
      "न": 157,
      "व": 158,
      "ा": 159,
      "ु": 160,
      "দ": 161,
      "প": 162,
      "ম": 163,
      "র": 164,
      "স": 165,
      "হ": 166,
      "ু": 167,
      "ে": 168,
      "ਈ": 169,
      "ਕ": 170,
      "ਭ": 171,
      "ਵ": 172,
      "ਸ": 173,
      "਼": 174,
      "ਾ": 175,
      "ੀ": 176,
      "ੋ": 177,
      "ம": 178,
      "ழ": 179,
      "ி": 180,
      "ொ": 181,
      "ḩ": 182,
      "ạ": 183,
      "​": 184,
      "‎": 185,
      "–": 186,
      "—": 187,
      "•": 188,
      "…": 189,
      "′": 190,
      "€": 191,
      "−": 192,
      "♭": 193,
      "♯": 194,
      "ジ": 195,
      "ズ": 196,
      "フ": 197,
      "ム": 198,
      "レ": 199,
      "ー": 200,
      "任": 201,
      "何": 202,
      "化": 203,
      "叫": 204,
      "始": 205,
      "帝": 206,
      "柴": 207,
      "機": 208,
      "犬": 209,
      "王": 210,
      "皇": 211,
      "神": 212,
      "秦": 213,
      "闘": 214,
      "鸡": 215,
      "th": 216,
      "in": 217,
      "an": 218,
      "er": 219,
      "the": 220,
      "re": 221,
      "on": 222,
      "at": 223,
      "is": 224,
      "or": 225,
      "es": 226,
      "en": 227,
      "al": 228,
      "ou": 229,
      "ar": 230,
      "ing": 231,
      "and": 232,
      "as": 233,
      "to": 234,
      "of": 235,
      "it": 236,
      "ic": 237,
      "ed": 238,
      "st": 239,
      "le": 240,
      "wh": 241,
      "om": 242,
      "ch": 243,
      "ion": 244,
      "are": 245,
      "se": 246,
      "am": 247,
      "ve": 248,
      "il": 249,
      "ro": 250,
      "ent": 251,
      "be": 252,
      "ac": 253,
      "ow": 254,
      "ol": 255,
      "for": 256,
      "de": 257,
      "you": 258,
      "all": 259,
      "ay": 260,
      "el": 261,
      "us": 262,
      "im": 263,
      "if": 264,
      "et": 265,
      "un": 266,
      "ter": 267,
      "ig": 268,
      "mo": 269,
      "ad": 270,
      "id": 271,
      "pl": 272,
      "ot": 273,
      "ver": 274,
      "ir": 275,
      "ther": 276,
      "tr": 277,
      "what": 278,
      "op": 279,
      "ur": 280,
      "ul": 281,
      "ke": 282,
      "ce": 283,
      "pe": 284,
      "com": 285,
      "est": 286,
      "ag": 287,
      "ation": 288,
      "sh": 289,
      "um": 290,
      "that": 291,
      "wi": 292,
      "fr": 293,
      "ab": 294,
      "can": 295,
      "ct": 296,
      "ap": 297,
      "con": 298,
      "oo": 299,
      "ers": 300,
      "ies": 301,
      "ive": 302,
      "do": 303,
      "with": 304,
      "ich": 305,
      "te": 306,
      "pro": 307,
      "ne": 308,
      "cl": 309,
      "ly": 310,
      "oun": 311,
      "ts": 312,
      "so": 313,
      "me": 314,
      "ma": 315,
      "ut": 316,
      "sp": 317,
      "which": 318,
      "igh": 319,
      "ex": 320,
      "ld": 321,
      "su": 322,
      "man": 323,
      "ill": 324,
      "ha": 325,
      "ome": 326,
      "qu": 327,
      "one": 328,
      "str": 329,
      "per": 330,
      "ate": 331,
      "ist": 332,
      "wor": 333,
      "di": 334,
      "li": 335,
      "by": 336,
      "res": 337,
      "ess": 338,
      "ain": 339,
      "ity": 340,
      "your": 341,
      "co": 342,
      "we": 343,
      "ge": 344,
      "some": 345,
      "lo": 346,
      "act": 347,
      "from": 348,
      "bo": 349,
      "fer": 350,
      "ds": 351,
      "ant": 352,
      "low": 353,
      "art": 354,
      "ally": 355,
      "gr": 356,
      "our": 357,
      "pr": 358,
      "au": 359,
      "he": 360,
      "po": 361,
      "was": 362,
      "ass": 363,
      "have": 364,
      "ach": 365,
      "ould": 366,
      "br": 367,
      "fe": 368,
      "out": 369,
      "not": 370,
      "ood": 371,
      "ine": 372,
      "ere": 373,
      "ight": 374,
      "ip": 375,
      "king": 376,
      "how": 377,
      "ast": 378,
      "ment": 379,
      "ort": 380,
      "ard": 381,
      "20": 382,
      "ame": 383,
      "go": 384,
      "av": 385,
      "end": 386,
      "ish": 387,
      "ph": 388,
      "comp": 389,
      "ia": 390,
      "tim": 391,
      "they": 392,
      "iv": 393,
      "red": 394,
      "ell": 395,
      "dr": 396,
      "ong": 397,
      "iz": 398,
      "ice": 399,
      "em": 400,
      "most": 401,
      "ang": 402,
      "this": 403,
      "car": 404,
      "other": 405,
      "age": 406,
      "way": 407,
      "mon": 408,
      "gre": 409,
      "bl": 410,
      "ind": 411,
      "who": 412,
      "ks": 413,
      "there": 414,
      "up": 415,
      "ty": 416,
      "play": 417,
      "ans": 418,
      "ci": 419,
      "many": 420,
      "own": 421,
      "ball": 422,
      "fo": 423,
      "ta": 424,
      "col": 425,
      "has": 426,
      "also": 427,
      "cre": 428,
      "mar": 429,
      "dif": 430,
      "ound": 431,
      "ber": 432,
      "ater": 433,
      "ide": 434,
      "ions": 435,
      "bas": 436,
      "cr": 437,
      "ear": 438,
      "gh": 439,
      "ify": 440,
      "ated": 441,
      "vel": 442,
      "ack": 443,
      "19": 444,
      "more": 445,
      "ick": 446,
      "ence": 447,
      "use": 448,
      "ous": 449,
      "when": 450,
      "get": 451,
      "but": 452,
      "der": 453,
      "differ": 454,
      "ople": 455,
      "able": 456,
      "ck": 457,
      "its": 458,
      "people": 459,
      "their": 460,
      "will": 461,
      "like": 462,
      "bu": 463,
      "best": 464,
      "fl": 465,
      "ure": 466,
      "time": 467,
      "du": 468,
      "list": 469,
      "ten": 470,
      "form": 471,
      "ular": 472,
      "inter": 473,
      "clu": 474,
      "ie": 475,
      "coun": 476,
      "ates": 477,
      "these": 478,
      "ser": 479,
      "spe": 480,
      "ren": 481,
      "ak": 482,
      "ian": 483,
      "ough": 484,
      "af": 485,
      "fol": 486,
      "pop": 487,
      "cus": 488,
      "cons": 489,
      "day": 490,
      "bet": 491,
      "water": 492,
      "ep": 493,
      "als": 494,
      "ace": 495,
      "no": 496,
      "world": 497,
      "very": 498,
      "land": 499,
      "gen": 500,
      "ident": 501,
      "ings": 502,
      "jo": 503,
      "follow": 504,
      "sion": 505,
      "ite": 506,
      "new": 507,
      "ical": 508,
      "port": 509,
      "ue": 510,
      "eng": 511,
      "ile": 512,
      "kn": 513,
      "sk": 514,
      "ple": 515,
      "tw": 516,
      "ance": 517,
      "la": 518,
      "cal": 519,
      "inclu": 520,
      "eric": 521,
      "fir": 522,
      "hel": 523,
      "dat": 524,
      "ors": 525,
      "ib": 526,
      "par": 527,
      "sy": 528,
      "les": 529,
      "class": 530,
      "ev": 531,
      "ities": 532,
      "used": 533,
      "any": 534,
      "why": 535,
      "each": 536,
      "ree": 537,
      "different": 538,
      "cess": 539,
      "pre": 540,
      "ary": 541,
      "indi": 542,
      "ild": 543,
      "row": 544,
      "cor": 545,
      "team": 546,
      "air": 547,
      "string": 548,
      "americ": 549,
      "following": 550,
      "first": 551,
      "tain": 552,
      "pres": 553,
      "ult": 554,
      "plan": 555,
      "than": 556,
      "high": 557,
      "over": 558,
      "give": 559,
      "where": 560,
      "des": 561,
      "cur": 562,
      "ning": 563,
      "make": 564,
      "countr": 565,
      "popular": 566,
      "part": 567,
      "year": 568,
      "ition": 569,
      "pos": 570,
      "os": 571,
      "them": 572,
      "good": 573,
      "ations": 574,
      "ire": 575,
      "fam": 576,
      "ents": 577,
      "let": 578,
      "ited": 579,
      "war": 580,
      "ase": 581,
      "cau": 582,
      "ook": 583,
      "data": 584,
      "fin": 585,
      "lar": 586,
      "typ": 587,
      "ces": 588,
      "vis": 589,
      "ry": 590,
      "ust": 591,
      "ful": 592,
      "dis": 593,
      "ef": 594,
      "bre": 595,
      "cause": 596,
      "long": 597,
      "ons": 598,
      "ial": 599,
      "work": 600,
      "top": 601,
      "ll": 602,
      "should": 603,
      "min": 604,
      "need": 605,
      "my": 606,
      "ider": 607,
      "identify": 608,
      "ele": 609,
      "ger": 610,
      "mer": 611,
      "cle": 612,
      "old": 613,
      "pers": 614,
      "cat": 615,
      "dog": 616,
      "into": 617,
      "ween": 618,
      "add": 619,
      "between": 620,
      "cussion": 621,
      "ways": 622,
      "may": 623,
      "great": 624,
      "prov": 625,
      "states": 626,
      "percussion": 627,
      "help": 628,
      "ouse": 629,
      "00": 630,
      "name": 631,
      "such": 632,
      "thr": 633,
      "mov": 634,
      "char": 635,
      "produ": 636,
      "city": 637,
      "int": 638,
      "ily": 639,
      "gu": 640,
      "ca": 641,
      "dy": 642,
      "off": 643,
      "would": 644,
      "tra": 645,
      "instr": 646,
      "cent": 647,
      "could": 648,
      "hum": 649,
      "ory": 650,
      "gy": 651,
      "ital": 652,
      "while": 653,
      "iver": 654,
      "pen": 655,
      "spec": 656,
      "sm": 657,
      "cont": 658,
      "ket": 659,
      "mus": 660,
      "ins": 661,
      "lif": 662,
      "united": 663,
      "nor": 664,
      "je": 665,
      "does": 666,
      "cer": 667,
      "anim": 668,
      "because": 669,
      "ting": 670,
      "ink": 671,
      "alth": 672,
      "che": 673,
      "run": 674,
      "ific": 675,
      "ters": 676,
      "ari": 677,
      "sa": 678,
      "house": 679,
      "ys": 680,
      "num": 681,
      "ign": 682,
      "two": 683,
      "ho": 684,
      "ange": 685,
      "az": 686,
      "ction": 687,
      "classify": 688,
      "known": 689,
      "ating": 690,
      "consider": 691,
      "instrum": 692,
      "tell": 693,
      "cap": 694,
      "ames": 695,
      "about": 696,
      "pt": 697,
      "well": 698,
      "med": 699,
      "were": 700,
      "foot": 701,
      "ically": 702,
      "common": 703,
      "lang": 704,
      "ss": 705,
      "cis": 706,
      "fish": 707,
      "inv": 708,
      "include": 709,
      "ely": 710,
      "ever": 711,
      "reg": 712,
      "whe": 713,
      "ra": 714,
      "american": 715,
      "sn": 716,
      "att": 717,
      "person": 718,
      "stem": 719,
      "cho": 720,
      "game": 721,
      "then": 722,
      "hy": 723,
      "ix": 724,
      "ding": 725,
      "ban": 726,
      "gener": 727,
      "bi": 728,
      "come": 729,
      "cial": 730,
      "ms": 731,
      "sal": 732,
      "based": 733,
      "langu": 734,
      "don": 735,
      "ics": 736,
      "fun": 737,
      "sun": 738,
      "thing": 739,
      "system": 740,
      "pu": 741,
      "del": 742,
      "ba": 743,
      "amp": 744,
      "uring": 745,
      "ship": 746,
      "take": 747,
      "orts": 748,
      "call": 749,
      "stand": 750,
      "10": 751,
      "cy": 752,
      "eas": 753,
      "fore": 754,
      "serv": 755,
      "comm": 756,
      "ually": 757,
      "aw": 758,
      "light": 759,
      "ative": 760,
      "food": 761,
      "rel": 762,
      "country": 763,
      "requ": 764,
      "sol": 765,
      "ese": 766,
      "har": 767,
      "sou": 768,
      "ational": 769,
      "wr": 770,
      "won": 771,
      "three": 772,
      "mat": 773,
      "ject": 774,
      "),": 775,
      "sim": 776,
      "ste": 777,
      "state": 778,
      "tre": 779,
      "pot": 780,
      "lear": 781,
      "tur": 782,
      "every": 783,
      "only": 784,
      "instrument": 785,
      "key": 786,
      "gg": 787,
      "sing": 788,
      "through": 789,
      "ven": 790,
      "set": 791,
      "met": 792,
      "main": 793,
      "health": 794,
      "ict": 795,
      "exam": 796,
      "back": 797,
      "kes": 798,
      "less": 799,
      "pur": 800,
      "ages": 801,
      "ible": 802,
      "sto": 803,
      "football": 804,
      "down": 805,
      "net": 806,
      "ving": 807,
      "ices": 808,
      "around": 809,
      "sw": 810,
      "often": 811,
      "io": 812,
      "hol": 813,
      "start": 814,
      "ize": 815,
      "fact": 816,
      "ual": 817,
      "ens": 818,
      "202": 819,
      "both": 820,
      "her": 821,
      "under": 822,
      "fri": 823,
      "ose": 824,
      "ob": 825,
      "wind": 826,
      "things": 827,
      "ark": 828,
      "loc": 829,
      "show": 830,
      "ced": 831,
      "read": 832,
      "found": 833,
      "life": 834,
      "ones": 835,
      "ath": 836,
      "da": 837,
      "hand": 838,
      "during": 839,
      "bir": 840,
      "pow": 841,
      "sel": 842,
      "tern": 843,
      "made": 844,
      "vari": 845,
      "sport": 846,
      "ather": 847,
      "mu": 848,
      "sur": 849,
      "ben": 850,
      "famous": 851,
      "small": 852,
      "rect": 853,
      "ason": 854,
      "import": 855,
      "his": 856,
      "ility": 857,
      "being": 858,
      "val": 859,
      "oney": 860,
      "here": 861,
      "ton": 862,
      "ble": 863,
      "win": 864,
      "wood": 865,
      "gan": 866,
      "gar": 867,
      "pol": 868,
      "green": 869,
      "sports": 870,
      "vid": 871,
      "star": 872,
      "cond": 873,
      "five": 874,
      "ina": 875,
      "using": 876,
      "activ": 877,
      ").": 878,
      "process": 879,
      "important": 880,
      "bar": 881,
      "fi": 882,
      "number": 883,
      "vi": 884,
      "been": 885,
      "after": 886,
      "whether": 887,
      "nam": 888,
      "place": 889,
      "ner": 890,
      "sof": 891,
      "ash": 892,
      "years": 893,
      "bor": 894,
      "amm": 895,
      "201": 896,
      "ctr": 897,
      "mil": 898,
      "olo": 899,
      "ments": 900,
      "book": 901,
      "national": 902,
      "ves": 903,
      "stu": 904,
      "sup": 905,
      "species": 906,
      "mem": 907,
      "board": 908,
      "electr": 909,
      "bus": 910,
      "sub": 911,
      "prim": 912,
      "joy": 913,
      "san": 914,
      "incre": 915,
      "oc": 916,
      "language": 917,
      "grow": 918,
      "lot": 919,
      "see": 920,
      "allow": 921,
      "sc": 922,
      "travel": 923,
      "ier": 924,
      "appl": 925,
      "typically": 926,
      "sure": 927,
      "velop": 928,
      "sum": 929,
      "ale": 930,
      "develop": 931,
      "india": 932,
      "ka": 933,
      "tech": 934,
      "fil": 935,
      "univer": 936,
      "opt": 937,
      "tem": 938,
      "even": 939,
      "ise": 940,
      "exper": 941,
      "players": 942,
      "child": 943,
      "fect": 944,
      "jor": 945,
      "ets": 946,
      "body": 947,
      "eu": 948,
      "tri": 949,
      "however": 950,
      "sour": 951,
      "ines": 952,
      "ross": 953,
      "wal": 954,
      "home": 955,
      "last": 956,
      "build": 957,
      "care": 958,
      "ither": 959,
      "power": 960,
      "bs": 961,
      "bal": 962,
      "big": 963,
      "curren": 964,
      "visit": 965,
      "bur": 966,
      "just": 967,
      "od": 968,
      "lead": 969,
      "open": 970,
      "music": 971,
      "find": 972,
      "ps": 973,
      "publ": 974,
      "bon": 975,
      "cities": 976,
      "ches": 977,
      "200": 978,
      "ai": 979,
      "nat": 980,
      "ore": 981,
      "keep": 982,
      "product": 983,
      "called": 984,
      "difference": 985,
      "gest": 986,
      "dep": 987,
      "family": 988,
      "ail": 989,
      "want": 990,
      "ists": 991,
      "enjoy": 992,
      "blue": 993,
      "considered": 994,
      "moun": 995,
      "series": 996,
      "countries": 997,
      "charac": 998,
      "animal": 999,
      "pan": 1000,
      "tin": 1001,
      "fee": 1002,
      "base": 1003,
      "money": 1004,
      "teams": 1005,
      "four": 1006,
      "prof": 1007,
      "ures": 1008,
      "fru": 1009,
      "ski": 1010,
      "south": 1011,
      "cour": 1012,
      "train": 1013,
      "type": 1014,
      "fic": 1015,
      "itar": 1016,
      "much": 1017,
      "bro": 1018,
      "hist": 1019,
      "line": 1020,
      "rest": 1021,
      "company": 1022,
      "black": 1023,
      "hard": 1024,
      "interest": 1025,
      "cof": 1026,
      "dom": 1027,
      "song": 1028,
      "ener": 1029,
      "tom": 1030,
      "stre": 1031,
      "que": 1032,
      "ress": 1033,
      "pass": 1034,
      "ana": 1035,
      "arch": 1036,
      "few": 1037,
      "techn": 1038,
      "ied": 1039,
      "ince": 1040,
      "large": 1041,
      "coffee": 1042,
      "bul": 1043,
      "did": 1044,
      "kid": 1045,
      "ring": 1046,
      "olf": 1047,
      "try": 1048,
      "live": 1049,
      "ional": 1050,
      "flow": 1051,
      "earth": 1052,
      "leg": 1053,
      "mot": 1054,
      "another": 1055,
      "real": 1056,
      "ized": 1057,
      "basket": 1058,
      "park": 1059,
      "cu": 1060,
      "py": 1061,
      "usually": 1062,
      "human": 1063,
      "learn": 1064,
      "tal": 1065,
      "leag": 1066,
      "types": 1067,
      "experi": 1068,
      "too": 1069,
      "before": 1070,
      "trans": 1071,
      "capital": 1072,
      "example": 1073,
      "better": 1074,
      "hot": 1075,
      "wat": 1076,
      "prote": 1077,
      "self": 1078,
      "rock": 1079,
      "ety": 1080,
      "head": 1081,
      "ken": 1082,
      "progr": 1083,
      "writ": 1084,
      "might": 1085,
      "aces": 1086,
      "dogs": 1087,
      "guitar": 1088,
      "lish": 1089,
      "nis": 1090,
      "fran": 1091,
      "direct": 1092,
      "snow": 1093,
      "mountain": 1094,
      "redu": 1095,
      "boo": 1096,
      "ness": 1097,
      "term": 1098,
      "love": 1099,
      "bab": 1100,
      "either": 1101,
      "fast": 1102,
      "mis": 1103,
      "put": 1104,
      "sci": 1105,
      "ural": 1106,
      "grou": 1107,
      "ju": 1108,
      "refer": 1109,
      "public": 1110,
      "tle": 1111,
      "tour": 1112,
      "vir": 1113,
      "america": 1114,
      "chool": 1115,
      "ah": 1116,
      "ris": 1117,
      "rain": 1118,
      "school": 1119,
      "depend": 1120,
      "season": 1121,
      "compu": 1122,
      "euro": 1123,
      "iness": 1124,
      "white": 1125,
      "qual": 1126,
      "same": 1127,
      "asons": 1128,
      "ables": 1129,
      "cali": 1130,
      "18": 1131,
      "ium": 1132,
      "led": 1133,
      "orig": 1134,
      "know": 1135,
      "ru": 1136,
      "tit": 1137,
      "uses": 1138,
      "ides": 1139,
      "buy": 1140,
      "basketball": 1141,
      "ek": 1142,
      "jap": 1143,
      "son": 1144,
      "vers": 1145,
      "bers": 1146,
      "uct": 1147,
      "pect": 1148,
      "japan": 1149,
      "nia": 1150,
      "order": 1151,
      "north": 1152,
      "dist": 1153,
      "hap": 1154,
      "wer": 1155,
      "ends": 1156,
      "199": 1157,
      "califor": 1158,
      "cup": 1159,
      "oes": 1160,
      "champ": 1161,
      "she": 1162,
      "ability": 1163,
      "market": 1164,
      "turn": 1165,
      "sl": 1166,
      "model": 1167,
      "point": 1168,
      "phys": 1169,
      "fire": 1170,
      "pet": 1171,
      "item": 1172,
      "veget": 1173,
      "room": 1174,
      "major": 1175,
      "exer": 1176,
      "california": 1177,
      "had": 1178,
      "sle": 1179,
      "soc": 1180,
      "extin": 1181,
      "words": 1182,
      "feel": 1183,
      "golf": 1184,
      "hi": 1185,
      "mult": 1186,
      "without": 1187,
      "tex": 1188,
      "including": 1189,
      "invest": 1190,
      "bow": 1191,
      "fre": 1192,
      "pay": 1193,
      "vol": 1194,
      "ats": 1195,
      "alive": 1196,
      "oods": 1197,
      "cost": 1198,
      "gor": 1199,
      "games": 1200,
      "oper": 1201,
      "movies": 1202,
      "extinct": 1203,
      "level": 1204,
      "engine": 1205,
      "pat": 1206,
      "ri": 1207,
      "fiel": 1208,
      "giv": 1209,
      "ient": 1210,
      "mic": 1211,
      "na": 1212,
      "ric": 1213,
      "vent": 1214,
      "benef": 1215,
      "baseball": 1216,
      "europe": 1217,
      "grap": 1218,
      "contin": 1219,
      "gl": 1220,
      "present": 1221,
      "exercis": 1222,
      "aur": 1223,
      "cut": 1224,
      "hour": 1225,
      "mill": 1226,
      "action": 1227,
      "league": 1228,
      "weight": 1229,
      "partic": 1230,
      "running": 1231,
      "non": 1232,
      "ork": 1233,
      "humans": 1234,
      "commun": 1235,
      "egg": 1236,
      "right": 1237,
      "mean": 1238,
      "lake": 1239,
      "provide": 1240,
      "current": 1241,
      "profess": 1242,
      "hn": 1243,
      "ars": 1244,
      "aster": 1245,
      "austr": 1246,
      "largest": 1247,
      "origin": 1248,
      "soccer": 1249,
      "bat": 1250,
      "pare": 1251,
      "pick": 1252,
      "sign": 1253,
      "vie": 1254,
      "winter": 1255,
      "those": 1256,
      "ases": 1257,
      "stor": 1258,
      "sever": 1259,
      "word": 1260,
      "individ": 1261,
      "addition": 1262,
      "summer": 1263,
      "face": 1264,
      "organ": 1265,
      "conne": 1266,
      "object": 1267,
      "lim": 1268,
      "pa": 1269,
      "yle": 1270,
      "become": 1271,
      "soci": 1272,
      "plants": 1273,
      "band": 1274,
      "cats": 1275,
      "watch": 1276,
      "hal": 1277,
      "hic": 1278,
      "lu": 1279,
      "table": 1280,
      "apple": 1281,
      "color": 1282,
      "salt": 1283,
      "squ": 1284,
      "ze": 1285,
      "chick": 1286,
      "played": 1287,
      "electric": 1288,
      "hu": 1289,
      "hor": 1290,
      "animals": 1291,
      "econ": 1292,
      "gin": 1293,
      "side": 1294,
      "since": 1295,
      "ted": 1296,
      "west": 1297,
      "move": 1298,
      "making": 1299,
      "activities": 1300,
      "energy": 1301,
      "inst": 1302,
      "itive": 1303,
      "itions": 1304,
      "icy": 1305,
      "area": 1306,
      "pract": 1307,
      "198": 1308,
      "formation": 1309,
      "children": 1310,
      "econom": 1311,
      "els": 1312,
      "appro": 1313,
      "compan": 1314,
      "15": 1315,
      "eat": 1316,
      "ator": 1317,
      "change": 1318,
      "amoun": 1319,
      "space": 1320,
      "weather": 1321,
      "flu": 1322,
      "movie": 1323,
      "books": 1324,
      "dro": 1325,
      "ants": 1326,
      "orange": 1327,
      "itch": 1328,
      "super": 1329,
      "john": 1330,
      "items": 1331,
      "cult": 1332,
      "lor": 1333,
      "nu": 1334,
      "lect": 1335,
      "ada": 1336,
      "clo": 1337,
      "player": 1338,
      "speed": 1339,
      "sleep": 1340,
      "ft": 1341,
      "ling": 1342,
      "ills": 1343,
      "tennis": 1344,
      "kids": 1345,
      "equ": 1346,
      "lin": 1347,
      "mi": 1348,
      "mal": 1349,
      "social": 1350,
      "quest": 1351,
      "ellow": 1352,
      "ots": 1353,
      "trad": 1354,
      "english": 1355,
      "ster": 1356,
      "ooking": 1357,
      "second": 1358,
      "plant": 1359,
      "fruit": 1360,
      "view": 1361,
      "ake": 1362,
      "gold": 1363,
      "manu": 1364,
      "avor": 1365,
      "history": 1366,
      "austral": 1367,
      "fall": 1368,
      "free": 1369,
      "think": 1370,
      "resp": 1371,
      "imm": 1372,
      "ples": 1373,
      "business": 1374,
      "ade": 1375,
      "cing": 1376,
      "rele": 1377,
      "recor": 1378,
      "ley": 1379,
      "door": 1380,
      "brand": 1381,
      "due": 1382,
      "lands": 1383,
      "friends": 1384,
      "bird": 1385,
      "champion": 1386,
      "hun": 1387,
      "lit": 1388,
      "ny": 1389,
      "pain": 1390,
      "yes": 1391,
      "design": 1392,
      "poss": 1393,
      "attle": 1394,
      "connect": 1395,
      "dc": 1396,
      "ences": 1397,
      "ica": 1398,
      "others": 1399,
      "indian": 1400,
      "computer": 1401,
      "manufact": 1402,
      "dan": 1403,
      "oy": 1404,
      "ved": 1405,
      "cept": 1406,
      "again": 1407,
      "wide": 1408,
      "izz": 1409,
      "specific": 1410,
      "experience": 1411,
      "fly": 1412,
      "ko": 1413,
      "ron": 1414,
      "ense": 1415,
      "comes": 1416,
      "ago": 1417,
      "brit": 1418,
      "month": 1419,
      "days": 1420,
      "field": 1421,
      "several": 1422,
      "ams": 1423,
      "contain": 1424,
      "ney": 1425,
      "box": 1426,
      "softw": 1427,
      "ga": 1428,
      "mich": 1429,
      "york": 1430,
      "ulation": 1431,
      "times": 1432,
      "cook": 1433,
      "yellow": 1434,
      "tow": 1435,
      "sell": 1436,
      "roll": 1437,
      "beach": 1438,
      "adv": 1439,
      "group": 1440,
      "aut": 1441,
      "tu": 1442,
      "xic": 1443,
      "reasons": 1444,
      "always": 1445,
      "arg": 1446,
      "places": 1447,
      "ization": 1448,
      "effect": 1449,
      "companies": 1450,
      "oil": 1451,
      "road": 1452,
      "someone": 1453,
      "support": 1454,
      "software": 1455,
      "night": 1456,
      "sand": 1457,
      "une": 1458,
      "short": 1459,
      "geor": 1460,
      "general": 1461,
      "located": 1462,
      "professional": 1463,
      "once": 1464,
      "ication": 1465,
      "omet": 1466,
      "suc": 1467,
      "strong": 1468,
      "create": 1469,
      "mas": 1470,
      "sity": 1471,
      "tas": 1472,
      "access": 1473,
      "ights": 1474,
      "cover": 1475,
      "going": 1476,
      "prefer": 1477,
      "generally": 1478,
      "2022": 1479,
      "ham": 1480,
      "lay": 1481,
      "across": 1482,
      "thern": 1483,
      "prove": 1484,
      "mach": 1485,
      "cate": 1486,
      "din": 1487,
      "ious": 1488,
      "information": 1489,
      "sea": 1490,
      "comple": 1491,
      "icket": 1492,
      "akes": 1493,
      "personal": 1494,
      "gas": 1495,
      "mind": 1496,
      "ately": 1497,
      "ased": 1498,
      "ston": 1499,
      "makes": 1500,
      "expl": 1501,
      "ideas": 1502,
      "require": 1503,
      "championship": 1504,
      "12": 1505,
      "bot": 1506,
      "hing": 1507,
      "por": 1508,
      "toge": 1509,
      "iple": 1510,
      "law": 1511,
      "president": 1512,
      "easy": 1513,
      "requi": 1514,
      "source": 1515,
      "exercise": 1516,
      "bin": 1517,
      "fur": 1518,
      "mag": 1519,
      "must": 1520,
      "oce": 1521,
      "oose": 1522,
      "phone": 1523,
      "compet": 1524,
      "pens": 1525,
      "services": 1526,
      "together": 1527,
      "cir": 1528,
      "cum": 1529,
      "ded": 1530,
      "tv": 1531,
      "ism": 1532,
      "having": 1533,
      "local": 1534,
      "drive": 1535,
      "focus": 1536,
      "dam": 1537,
      "now": 1538,
      "sit": 1539,
      "ature": 1540,
      "vehic": 1541,
      "imp": 1542,
      "clim": 1543,
      "ution": 1544,
      "harry": 1545,
      "rus": 1546,
      "beli": 1547,
      "iger": 1548,
      "spend": 1549,
      "descr": 1550,
      "leted": 1551,
      "healthy": 1552,
      "ology": 1553,
      "characters": 1554,
      "hours": 1555,
      "chicken": 1556,
      "success": 1557,
      "brow": 1558,
      "far": 1559,
      "mor": 1560,
      "yo": 1561,
      "iding": 1562,
      "meth": 1563,
      "colors": 1564,
      "created": 1565,
      "bit": 1566,
      "card": 1567,
      "lon": 1568,
      "mac": 1569,
      "ram": 1570,
      "china": 1571,
      "improve": 1572,
      "living": 1573,
      "avail": 1574,
      "ives": 1575,
      "rench": 1576,
      "woodwind": 1577,
      "francis": 1578,
      "amount": 1579,
      "mid": 1580,
      "ping": 1581,
      "sau": 1582,
      "til": 1583,
      "ref": 1584,
      "ply": 1585,
      "mexic": 1586,
      "cricket": 1587,
      "natural": 1588,
      "mix": 1589,
      "rom": 1590,
      "bel": 1591,
      "break": 1592,
      "cheese": 1593,
      "bike": 1594,
      "languages": 1595,
      "simil": 1596,
      "learning": 1597,
      "friend": 1598,
      "bed": 1599,
      "fit": 1600,
      "ran": 1601,
      "ared": 1602,
      "plat": 1603,
      "spring": 1604,
      "understand": 1605,
      "amming": 1606,
      "olog": 1607,
      "physical": 1608,
      "similar": 1609,
      "ker": 1610,
      "mp": 1611,
      "wine": 1612,
      "ann": 1613,
      "offer": 1614,
      "icated": 1615,
      "ential": 1616,
      "accoun": 1617,
      "dev": 1618,
      "etc": 1619,
      "cold": 1620,
      "finan": 1621,
      "options": 1622,
      "look": 1623,
      "ped": 1624,
      "rol": 1625,
      "ford": 1626,
      "ground": 1627,
      "gover": 1628,
      "tax": 1629,
      "tail": 1630,
      "wards": 1631,
      "primary": 1632,
      "temper": 1633,
      "british": 1634,
      "francisco": 1635,
      "chang": 1636,
      "stud": 1637,
      "benefits": 1638,
      "possible": 1639,
      "chic": 1640,
      "lower": 1641,
      "programming": 1642,
      "dol": 1643,
      "dig": 1644,
      "french": 1645,
      "men": 1646,
      "anal": 1647,
      "outs": 1648,
      "lebr": 1649,
      "moder": 1650,
      "spark": 1651,
      "phil": 1652,
      "drink": 1653,
      "ape": 1654,
      "den": 1655,
      "rate": 1656,
      "say": 1657,
      "wom": 1658,
      "still": 1659,
      "belong": 1660,
      "acks": 1661,
      "canada": 1662,
      "aper": 1663,
      "proble": 1664,
      "near": 1665,
      "something": 1666,
      "german": 1667,
      "tradition": 1668,
      "hit": 1669,
      "ique": 1670,
      "though": 1671,
      "ints": 1672,
      "def": 1673,
      "ified": 1674,
      "goal": 1675,
      "avo": 1676,
      "service": 1677,
      "soft": 1678,
      "individual": 1679,
      "dish": 1680,
      "pal": 1681,
      "pizz": 1682,
      "wild": 1683,
      "search": 1684,
      "enter": 1685,
      "depen": 1686,
      "struct": 1687,
      "playing": 1688,
      "consum": 1689,
      "depends": 1690,
      "ik": 1691,
      "ler": 1692,
      "mand": 1693,
      "mart": 1694,
      "round": 1695,
      "uc": 1696,
      "oud": 1697,
      "stay": 1698,
      "rot": 1699,
      "ury": 1700,
      "milk": 1701,
      "increase": 1702,
      "stream": 1703,
      "reduce": 1704,
      "gal": 1705,
      "mit": 1706,
      "mass": 1707,
      "wa": 1708,
      "wall": 1709,
      "ules": 1710,
      "answer": 1711,
      "vision": 1712,
      "000": 1713,
      "11": 1714,
      "bay": 1715,
      "bill": 1716,
      "iso": 1717,
      "sky": 1718,
      "university": 1719,
      "available": 1720,
      "\".": 1721,
      "sch": 1722,
      "vac": 1723,
      "amaz": 1724,
      "beaut": 1725,
      "verage": 1726,
      "meas": 1727,
      "potter": 1728,
      "character": 1729,
      "sat": 1730,
      "scal": 1731,
      "size": 1732,
      "xt": 1733,
      "degre": 1734,
      "ploy": 1735,
      "mail": 1736,
      "braz": 1737,
      "marvel": 1738,
      "197": 1739,
      "germany": 1740,
      "tribut": 1741,
      "walk": 1742,
      "multiple": 1743,
      "50": 1744,
      "fed": 1745,
      "ii": 1746,
      "pac": 1747,
      "thor": 1748,
      "price": 1749,
      "invent": 1750,
      "solar": 1751,
      "micro": 1752,
      "ocean": 1753,
      "chicago": 1754,
      ".\"": 1755,
      "afr": 1756,
      "ior": 1757,
      "past": 1758,
      "rich": 1759,
      "uk": 1760,
      "tool": 1761,
      "usa": 1762,
      "means": 1763,
      "utes": 1764,
      "quick": 1765,
      "ips": 1766,
      "clear": 1767,
      "control": 1768,
      "numbers": 1769,
      "manufactur": 1770,
      "govern": 1771,
      "pizza": 1772,
      "30": 1773,
      "away": 1774,
      "cel": 1775,
      "fu": 1776,
      "smo": 1777,
      "core": 1778,
      "england": 1779,
      "universe": 1780,
      "domest": 1781,
      "australia": 1782,
      "brazil": 1783,
      "\",": 1784,
      "14": 1785,
      "cas": 1786,
      "cell": 1787,
      "favor": 1788,
      "river": 1789,
      "tend": 1790,
      "thir": 1791,
      "style": 1792,
      "within": 1793,
      "proper": 1794,
      "next": 1795,
      "manage": 1796,
      "aves": 1797,
      "indu": 1798,
      "colle": 1799,
      "cry": 1800,
      "press": 1801,
      "examples": 1802,
      "ith": 1803,
      "ox": 1804,
      "rice": 1805,
      "sound": 1806,
      "among": 1807,
      "defin": 1808,
      "until": 1809,
      "tran": 1810,
      "meet": 1811,
      "pho": 1812,
      "mark": 1813,
      "population": 1814,
      "planet": 1815,
      "higher": 1816,
      "various": 1817,
      "against": 1818,
      "bad": 1819,
      "foods": 1820,
      "ino": 1821,
      "associ": 1822,
      "ado": 1823,
      "ida": 1824,
      "ults": 1825,
      "week": 1826,
      "heat": 1827,
      "washing": 1828,
      "emp": 1829,
      "breed": 1830,
      "written": 1831,
      "tournam": 1832,
      "quality": 1833,
      "financial": 1834,
      "cks": 1835,
      "done": 1836,
      "mamm": 1837,
      "names": 1838,
      "tomat": 1839,
      "sho": 1840,
      "perform": 1841,
      "working": 1842,
      "check": 1843,
      "allows": 1844,
      "practice": 1845,
      "fut": 1846,
      "glo": 1847,
      "han": 1848,
      "hold": 1849,
      "pie": 1850,
      "test": 1851,
      "stat": 1852,
      "seven": 1853,
      "ilt": 1854,
      "commonly": 1855,
      "stock": 1856,
      "given": 1857,
      "fat": 1858,
      "fac": 1859,
      "tree": 1860,
      "ues": 1861,
      "represent": 1862,
      "chin": 1863,
      "begin": 1864,
      "oly": 1865,
      "fort": 1866,
      "appe": 1867,
      "active": 1868,
      "club": 1869,
      "helps": 1870,
      "protein": 1871,
      "categor": 1872,
      "mexico": 1873,
      "cro": 1874,
      "dark": 1875,
      "unch": 1876,
      "variety": 1877,
      "activity": 1878,
      "restaur": 1879,
      "half": 1880,
      "ael": 1881,
      "range": 1882,
      "ye": 1883,
      "recent": 1884,
      "step": 1885,
      "choose": 1886,
      "ama": 1887,
      "post": 1888,
      "pose": 1889,
      "astic": 1890,
      "episo": 1891,
      "needs": 1892,
      "baby": 1893,
      "million": 1894,
      "17": 1895,
      "came": 1896,
      "case": 1897,
      "ls": 1898,
      "six": 1899,
      "tro": 1900,
      "ards": 1901,
      "points": 1902,
      "minutes": 1903,
      "offic": 1904,
      "single": 1905,
      "value": 1906,
      "science": 1907,
      "vegetables": 1908,
      "months": 1909,
      "modern": 1910,
      "ckey": 1911,
      "dest": 1912,
      "lat": 1913,
      "alco": 1914,
      "seattle": 1915,
      "imes": 1916,
      "france": 1917,
      "ended": 1918,
      "angle": 1919,
      "iano": 1920,
      "centr": 1921,
      "hockey": 1922,
      "purch": 1923,
      "member": 1924,
      "building": 1925,
      "products": 1926,
      "town": 1927,
      "washington": 1928,
      "mad": 1929,
      "tor": 1930,
      "recomm": 1931,
      "ota": 1932,
      "haw": 1933,
      "lock": 1934,
      "brid": 1935,
      "god": 1936,
      "drin": 1937,
      "skills": 1938,
      "full": 1939,
      "alcohol": 1940,
      "james": 1941,
      "sam": 1942,
      "enough": 1943,
      "today": 1944,
      "least": 1945,
      "share": 1946,
      "sugar": 1947,
      "perfor": 1948,
      "die": 1949,
      "built": 1950,
      "certain": 1951,
      "prime": 1952,
      "development": 1953,
      "ficient": 1954,
      "bulleted": 1955,
      "culture": 1956,
      "george": 1957,
      "ax": 1958,
      "dre": 1959,
      "nba": 1960,
      "vide": 1961,
      "asing": 1962,
      "secur": 1963,
      "force": 1964,
      "heav": 1965,
      "bring": 1966,
      "cars": 1967,
      "greatest": 1968,
      "bank": 1969,
      "training": 1970,
      "texas": 1971,
      "performan": 1972,
      "bass": 1973,
      "cam": 1974,
      "ging": 1975,
      "jack": 1976,
      "mater": 1977,
      "ned": 1978,
      "ane": 1979,
      "island": 1980,
      "aska": 1981,
      "itor": 1982,
      "wear": 1983,
      "achie": 1984,
      "party": 1985,
      "although": 1986,
      "standard": 1987,
      "relation": 1988,
      "stead": 1989,
      "2023": 1990,
      "paren": 1991,
      "favorite": 1992,
      "camp": 1993,
      "flo": 1994,
      "him": 1995,
      "mess": 1996,
      "reason": 1997,
      "atures": 1998,
      "ency": 1999,
      "stren": 2000,
      "expens": 2001,
      "works": 2002,
      "grass": 2003,
      "196": 2004,
      "plane": 2005,
      "longer": 2006,
      "safe": 2007,
      "regular": 2008,
      "systems": 2009,
      "potat": 2010,
      "course": 2011,
      "eggs": 2012,
      "cross": 2013,
      "swe": 2014,
      "tar": 2015,
      "xim": 2016,
      "rece": 2017,
      "reach": 2018,
      "ona": 2019,
      "ont": 2020,
      "issu": 2021,
      "envir": 2022,
      "youn": 2023,
      "tract": 2024,
      "ump": 2025,
      "prom": 2026,
      "goals": 2027,
      "driv": 2028,
      "getting": 2029,
      "clean": 2030,
      "brown": 2031,
      "platform": 2032,
      "third": 2033,
      "environ": 2034,
      "0s": 2035,
      "cop": 2036,
      "eve": 2037,
      "gain": 2038,
      "hab": 2039,
      "lines": 2040,
      "ners": 2041,
      "sil": 2042,
      "redi": 2043,
      "ingredi": 2044,
      "sequ": 2045,
      "hair": 2046,
      "perio": 2047,
      "coast": 2048,
      "useful": 2049,
      "thrones": 2050,
      "average": 2051,
      "cou": 2052,
      "cul": 2053,
      "ff": 2054,
      "hom": 2055,
      "jav": 2056,
      "lion": 2057,
      "rap": 2058,
      "ward": 2059,
      "ering": 2060,
      "iss": 2061,
      "ications": 2062,
      "left": 2063,
      "chan": 2064,
      "never": 2065,
      "cloud": 2066,
      "quar": 2067,
      "diet": 2068,
      "yourself": 2069,
      "blood": 2070,
      "prevent": 2071,
      "warm": 2072,
      "function": 2073,
      "simple": 2074,
      "fresh": 2075,
      "question": 2076,
      "impact": 2077,
      "industr": 2078,
      "cooking": 2079,
      "kind": 2080,
      "infl": 2081,
      "ask": 2082,
      "close": 2083,
      "lik": 2084,
      "code": 2085,
      "angel": 2086,
      "early": 2087,
      "bread": 2088,
      "location": 2089,
      "born": 2090,
      "meaning": 2091,
      "traditional": 2092,
      "streng": 2093,
      "',": 2094,
      "cit": 2095,
      "date": 2096,
      "fill": 2097,
      "faster": 2098,
      "gs": 2099,
      "gle": 2100,
      "chall": 2101,
      "bear": 2102,
      "accor": 2103,
      "iful": 2104,
      "compos": 2105,
      "ounds": 2106,
      "butter": 2107,
      "italian": 2108,
      "2021": 2109,
      "option": 2110,
      "depending": 2111,
      "little": 2112,
      "sauce": 2113,
      "college": 2114,
      "bol": 2115,
      "sav": 2116,
      "tes": 2117,
      "zer": 2118,
      "onic": 2119,
      "ali": 2120,
      "chr": 2121,
      "combin": 2122,
      "geo": 2123,
      "ival": 2124,
      "cially": 2125,
      "invol": 2126,
      "iction": 2127,
      "skiing": 2128,
      "requires": 2129,
      "government": 2130,
      "performance": 2131,
      "13": 2132,
      "16": 2133,
      "bicy": 2134,
      "cast": 2135,
      "cred": 2136,
      "rad": 2137,
      "ries": 2138,
      "somet": 2139,
      "ti": 2140,
      "tiger": 2141,
      "van": 2142,
      "ware": 2143,
      "income": 2144,
      "total": 2145,
      "teach": 2146,
      "2020": 2147,
      "ender": 2148,
      "diffic": 2149,
      "aft": 2150,
      "consist": 2151,
      "fully": 2152,
      "causes": 2153,
      "film": 2154,
      "career": 2155,
      "japanese": 2156,
      "european": 2157,
      "beautiful": 2158,
      "chinese": 2159,
      "hone": 2160,
      "rid": 2161,
      "ination": 2162,
      "story": 2163,
      "ush": 2164,
      "ift": 2165,
      "ote": 2166,
      "shoes": 2167,
      "const": 2168,
      "result": 2169,
      "delta": 2170,
      "chester": 2171,
      "technology": 2172,
      "particular": 2173,
      "signific": 2174,
      "women": 2175,
      "domesticated": 2176,
      "east": 2177,
      "gard": 2178,
      "hon": 2179,
      "scre": 2180,
      "educ": 2181,
      "bears": 2182,
      "moon": 2183,
      "pep": 2184,
      "shar": 2185,
      "ums": 2186,
      "spo": 2187,
      "anger": 2188,
      "positive": 2189,
      "minis": 2190,
      "related": 2191,
      "surface": 2192,
      "named": 2193,
      "michael": 2194,
      "avoid": 2195,
      "manufacturer": 2196,
      "central": 2197,
      "likely": 2198,
      "ially": 2199,
      "stop": 2200,
      "instead": 2201,
      "altern": 2202,
      "below": 2203,
      "ades": 2204,
      "agon": 2205,
      "tele": 2206,
      "project": 2207,
      "spain": 2208,
      "exist": 2209,
      "expect": 2210,
      "resour": 2211,
      "actually": 2212,
      "employ": 2213,
      "taking": 2214,
      "takes": 2215,
      "idea": 2216,
      "events": 2217,
      "moving": 2218,
      "ready": 2219,
      "transport": 2220,
      "tournament": 2221,
      "olymp": 2222,
      "relationship": 2223,
      "environment": 2224,
      "ingredients": 2225,
      "sometimes": 2226,
      "ibe": 2227,
      "pi": 2228,
      "alaska": 2229,
      "roy": 2230,
      "unique": 2231,
      "apr": 2232,
      "grand": 2233,
      "author": 2234,
      "special": 2235,
      "swimm": 2236,
      "risk": 2237,
      "batter": 2238,
      "machine": 2239,
      "aking": 2240,
      "bag": 2241,
      "gir": 2242,
      "along": 2243,
      "toy": 2244,
      "iter": 2245,
      "deli": 2246,
      "verse": 2247,
      "trip": 2248,
      "compl": 2249,
      "tea": 2250,
      "nether": 2251,
      "boat": 2252,
      "pris": 2253,
      "audi": 2254,
      "ished": 2255,
      "flat": 2256,
      "custo": 2257,
      "founder": 2258,
      "growth": 2259,
      "protect": 2260,
      "juice": 2261,
      "glass": 2262,
      "released": 2263,
      "account": 2264,
      "difficult": 2265,
      "fif": 2266,
      "lic": 2267,
      "lab": 2268,
      "nes": 2269,
      "ride": 2270,
      "wes": 2271,
      "sets": 2272,
      "ows": 2273,
      "span": 2274,
      "extre": 2275,
      "heart": 2276,
      "feet": 2277,
      "colum": 2278,
      "novel": 2279,
      "prepare": 2280,
      "banana": 2281,
      "solid": 2282,
      "write": 2283,
      "shows": 2284,
      "pyth": 2285,
      "pickle": 2286,
      "effective": 2287,
      "outside": 2288,
      "eth": 2289,
      "fant": 2290,
      "goo": 2291,
      "ians": 2292,
      "nice": 2293,
      "areas": 2294,
      "meat": 2295,
      "priv": 2296,
      "cream": 2297,
      "parts": 2298,
      "syn": 2299,
      "event": 2300,
      "referred": 2301,
      "bowl": 2302,
      "respons": 2303,
      "vehicle": 2304,
      "temperature": 2305,
      "amazon": 2306,
      "according": 2307,
      "civ": 2308,
      "gi": 2309,
      "nfl": 2310,
      "pul": 2311,
      "rules": 2312,
      "slow": 2313,
      "vin": 2314,
      "dead": 2315,
      "boston": 2316,
      "bert": 2317,
      "willi": 2318,
      "internet": 2319,
      "media": 2320,
      "rather": 2321,
      "everyone": 2322,
      "fruits": 2323,
      "text": 2324,
      "describe": 2325,
      "method": 2326,
      "feder": 2327,
      "security": 2328,
      "netherlands": 2329,
      "aim": 2330,
      "bing": 2331,
      "dd": 2332,
      "eating": 2333,
      "fing": 2334,
      "fle": 2335,
      "pand": 2336,
      "pine": 2337,
      "vo": 2338,
      "atic": 2339,
      "lemon": 2340,
      "ils": 2341,
      "celebr": 2342,
      "ctor": 2343,
      "sugg": 2344,
      "carbon": 2345,
      "provides": 2346,
      "instruments": 2347,
      "polit": 2348,
      "members": 2349,
      "suggest": 2350,
      "tou": 2351,
      "ute": 2352,
      "inc": 2353,
      "arm": 2354,
      "ilities": 2355,
      "bell": 2356,
      "became": 2357,
      "terms": 2358,
      "iday": 2359,
      "vert": 2360,
      "ume": 2361,
      "los": 2362,
      "flor": 2363,
      "northern": 2364,
      "maintain": 2365,
      "flowers": 2366,
      "square": 2367,
      "young": 2368,
      "significant": 2369,
      "gn": 2370,
      "hur": 2371,
      "iate": 2372,
      "male": 2373,
      "ula": 2374,
      "cool": 2375,
      "loss": 2376,
      "ength": 2377,
      "includes": 2378,
      "prem": 2379,
      "highest": 2380,
      "writing": 2381,
      "london": 2382,
      "refers": 2383,
      "measure": 2384,
      "degrees": 2385,
      "invented": 2386,
      "future": 2387,
      "google": 2388,
      "dav": 2389,
      "gro": 2390,
      "iel": 2391,
      "kin": 2392,
      "thus": 2393,
      "influ": 2394,
      "ery": 2395,
      "really": 2396,
      "atl": 2397,
      "dec": 2398,
      "decis": 2399,
      "ided": 2400,
      "manag": 2401,
      "dry": 2402,
      "international": 2403,
      "ought": 2404,
      "affe": 2405,
      "center": 2406,
      "italy": 2407,
      "bikes": 2408,
      "store": 2409,
      "started": 2410,
      "smaller": 2411,
      "bond": 2412,
      "nature": 2413,
      "histor": 2414,
      "songs": 2415,
      "scient": 2416,
      "titles": 2417,
      "golden": 2418,
      "complex": 2419,
      "period": 2420,
      "strength": 2421,
      "tesla": 2422,
      "christ": 2423,
      "swimming": 2424,
      "pil": 2425,
      "independ": 2426,
      "ently": 2427,
      "doing": 2428,
      "manchester": 2429,
      "liqu": 2430,
      "web": 2431,
      "bra": 2432,
      "2019": 2433,
      "whole": 2434,
      "mars": 2435,
      "cru": 2436,
      "lax": 2437,
      "overall": 2438,
      "produced": 2439,
      "developed": 2440,
      "leader": 2441,
      "motor": 2442,
      "graph": 2443,
      "economic": 2444,
      "students": 2445,
      "expensive": 2446,
      "driving": 2447,
      "civil": 2448,
      "cand": 2449,
      "map": 2450,
      "pic": 2451,
      "saf": 2452,
      "espe": 2453,
      "asia": 2454,
      "cher": 2455,
      "deb": 2456,
      "mob": 2457,
      "spr": 2458,
      "exe": 2459,
      "pool": 2460,
      "driver": 2461,
      "finally": 2462,
      "office": 2463,
      "chocol": 2464,
      "banks": 2465,
      "cycle": 2466,
      "throughout": 2467,
      "purpose": 2468,
      "2018": 2469,
      "files": 2470,
      "snowboard": 2471,
      "equip": 2472,
      "further": 2473,
      "management": 2474,
      "challeng": 2475,
      "pickleball": 2476,
      "hill": 2477,
      "jer": 2478,
      "looking": 2479,
      "mel": 2480,
      "muse": 2481,
      "pin": 2482,
      "tun": 2483,
      "online": 2484,
      "stick": 2485,
      "acid": 2486,
      "doors": 2487,
      "worth": 2488,
      "194": 2489,
      "served": 2490,
      "trees": 2491,
      "birth": 2492,
      "study": 2493,
      "record": 2494,
      "changes": 2495,
      "digital": 2496,
      "video": 2497,
      "customer": 2498,
      "florida": 2499,
      "especially": 2500,
      "piano": 2501,
      "sis": 2502,
      "ses": 2503,
      "tic": 2504,
      "ances": 2505,
      "return": 2506,
      "research": 2507,
      "stress": 2508,
      "oppos": 2509,
      "aug": 2510,
      "march": 2511,
      "skin": 2512,
      "held": 2513,
      "corpor": 2514,
      "century": 2515,
      "award": 2516,
      "atively": 2517,
      "match": 2518,
      "conditions": 2519,
      "applications": 2520,
      "approach": 2521,
      "respon": 2522,
      "problem": 2523,
      "martin": 2524,
      "associated": 2525,
      "bicycle": 2526,
      "april": 2527,
      "liquid": 2528,
      "bia": 2529,
      "hop": 2530,
      "ials": 2531,
      "later": 2532,
      "mou": 2533,
      "relax": 2534,
      "ensure": 2535,
      "seen": 2536,
      "seed": 2537,
      "coming": 2538,
      "suit": 2539,
      "typical": 2540,
      "factors": 2541,
      "occur": 2542,
      "distance": 2543,
      "russ": 2544,
      "believe": 2545,
      "microsoft": 2546,
      "resources": 2547,
      "dut": 2548,
      "ki": 2549,
      "ov": 2550,
      "pred": 2551,
      "astr": 2552,
      "acy": 2553,
      "tru": 2554,
      "strings": 2555,
      "custom": 2556,
      "southern": 2557,
      "treat": 2558,
      "network": 2559,
      "founded": 2560,
      "miles": 2561,
      "credit": 2562,
      "pepper": 2563,
      "western": 2564,
      "atlant": 2565,
      "mouth": 2566,
      "100": 2567,
      "bac": 2568,
      "dough": 2569,
      "dance": 2570,
      "emot": 2571,
      "frequ": 2572,
      "rates": 2573,
      "sent": 2574,
      "arct": 2575,
      "station": 2576,
      "iling": 2577,
      "deep": 2578,
      "load": 2579,
      "auto": 2580,
      "izing": 2581,
      "corn": 2582,
      "needed": 2583,
      "offers": 2584,
      "hydro": 2585,
      "aws": 2586,
      "street": 2587,
      "original": 2588,
      "advant": 2589,
      "roman": 2590,
      "mammals": 2591,
      "late": 2592,
      "ok": 2593,
      "pip": 2594,
      "pink": 2595,
      "race": 2596,
      "era": 2597,
      "stone": 2598,
      "beans": 2599,
      "abo": 2600,
      "neg": 2601,
      "strate": 2602,
      "outdoor": 2603,
      "ellig": 2604,
      "cards": 2605,
      "calcul": 2606,
      "paris": 2607,
      "planets": 2608,
      "eleph": 2609,
      "intellig": 2610,
      "hydr": 2611,
      "starting": 2612,
      "subject": 2613,
      "buying": 2614,
      "hiking": 2615,
      "analy": 2616,
      "sweet": 2617,
      "spanish": 2618,
      "equipment": 2619,
      "dle": 2620,
      "kar": 2621,
      "pig": 2622,
      "pack": 2623,
      "pets": 2624,
      "paper": 2625,
      "vary": 2626,
      "arily": 2627,
      "ita": 2628,
      "chess": 2629,
      "trum": 2630,
      "shop": 2631,
      "shap": 2632,
      "grad": 2633,
      "kingdom": 2634,
      "mont": 2635,
      "listen": 2636,
      "larger": 2637,
      "efficient": 2638,
      "hole": 2639,
      "easier": 2640,
      "steak": 2641,
      "processing": 2642,
      "argent": 2643,
      "morning": 2644,
      "africa": 2645,
      "inflation": 2646,
      "garden": 2647,
      "dou": 2648,
      "fans": 2649,
      "lam": 2650,
      "ml": 2651,
      "rat": 2652,
      "icate": 2653,
      "separ": 2654,
      "opport": 2655,
      "urance": 2656,
      "istics": 2657,
      "results": 2658,
      "ains": 2659,
      "cock": 2660,
      "actions": 2661,
      "ache": 2662,
      "ived": 2663,
      "basic": 2664,
      "195": 2665,
      "consists": 2666,
      "parks": 2667,
      "whereas": 2668,
      "muscle": 2669,
      "jordan": 2670,
      "mountains": 2671,
      "pattern": 2672,
      "objects": 2673,
      "brands": 2674,
      "vacation": 2675,
      "global": 2676,
      "television": 2677,
      "chocolate": 2678,
      "opportun": 2679,
      "bb": 2680,
      "bak": 2681,
      "dur": 2682,
      "ease": 2683,
      "email": 2684,
      "ges": 2685,
      "kill": 2686,
      "mc": 2687,
      "mom": 2688,
      "sus": 2689,
      "sco": 2690,
      "ured": 2691,
      "wing": 2692,
      "yon": 2693,
      "thin": 2694,
      "onents": 2695,
      "dex": 2696,
      "improv": 2697,
      "optim": 2698,
      "frame": 2699,
      "log": 2700,
      "mental": 2701,
      "draw": 2702,
      "ification": 2703,
      "potential": 2704,
      "metal": 2705,
      "reading": 2706,
      "daily": 2707,
      "birds": 2708,
      "supply": 2709,
      "court": 2710,
      "mission": 2711,
      "feeling": 2712,
      "horse": 2713,
      "lord": 2714,
      "successful": 2715,
      "pacific": 2716,
      "parents": 2717,
      "angeles": 2718,
      "education": 2719,
      "private": 2720,
      "gun": 2721,
      "ky": 2722,
      "mber": 2723,
      "nit": 2724,
      "si": 2725,
      "scr": 2726,
      "throw": 2727,
      "reco": 2728,
      "ison": 2729,
      "arr": 2730,
      "arian": 2731,
      "select": 2732,
      "role": 2733,
      "beer": 2734,
      "plac": 2735,
      "ultim": 2736,
      "shape": 2737,
      "lives": 2738,
      "webs": 2739,
      "poke": 2740,
      "ipt": 2741,
      "bud": 2742,
      "job": 2743,
      "production": 2744,
      "stands": 2745,
      "easily": 2746,
      "relig": 2747,
      "walking": 2748,
      "limited": 2749,
      "questions": 2750,
      "designed": 2751,
      "achieve": 2752,
      "java": 2753,
      "python": 2754,
      "touch": 2755,
      "ae": 2756,
      "bun": 2757,
      "kal": 2758,
      "length": 2759,
      "mun": 2760,
      "pto": 2761,
      "sq": 2762,
      "vs": 2763,
      "seasons": 2764,
      "bee": 2765,
      "front": 2766,
      "mechan": 2767,
      "spir": 2768,
      "flight": 2769,
      "itect": 2770,
      "datab": 2771,
      "contact": 2772,
      "inside": 2773,
      "ption": 2774,
      "region": 2775,
      "choice": 2776,
      "holiday": 2777,
      "architect": 2778,
      "taste": 2779,
      "photo": 2780,
      "battery": 2781,
      "fa": 2782,
      "fro": 2783,
      "fig": 2784,
      "noun": 2785,
      "tay": 2786,
      "zy": 2787,
      "sey": 2788,
      "iles": 2789,
      "idence": 2790,
      "plastic": 2791,
      "cannot": 2792,
      "contr": 2793,
      "suf": 2794,
      "coach": 2795,
      "covid": 2796,
      "creative": 2797,
      "gets": 2798,
      "county": 2799,
      "highly": 2800,
      "intro": 2801,
      "doesn": 2802,
      "electronic": 2803,
      "balance": 2804,
      "currency": 2805,
      "distin": 2806,
      "operating": 2807,
      "continent": 2808,
      "paint": 2809,
      "complete": 2810,
      "dishes": 2811,
      "satur": 2812,
      "tools": 2813,
      "quickly": 2814,
      "hawai": 2815,
      "heavy": 2816,
      "quarter": 2817,
      "transportation": 2818,
      "mobile": 2819,
      "fair": 2820,
      "ito": 2821,
      "ios": 2822,
      "ku": 2823,
      "lap": 2824,
      "ns": 2825,
      "oreg": 2826,
      "scor": 2827,
      "ude": 2828,
      "init": 2829,
      "inations": 2830,
      "ala": 2831,
      "leaves": 2832,
      "beat": 2833,
      "determ": 2834,
      "apore": 2835,
      "necess": 2836,
      "dire": 2837,
      "bran": 2838,
      "phr": 2839,
      "compared": 2840,
      "craft": 2841,
      "distribut": 2842,
      "charging": 2843,
      "host": 2844,
      "scot": 2845,
      "sources": 2846,
      "broken": 2847,
      "levels": 2848,
      "storage": 2849,
      "widely": 2850,
      "pasta": 2851,
      "crypto": 2852,
      "episode": 2853,
      "industry": 2854,
      "determine": 2855,
      "bour": 2856,
      "ders": 2857,
      "fix": 2858,
      "sor": 2859,
      "tall": 2860,
      "ture": 2861,
      "inet": 2862,
      "ert": 2863,
      "ories": 2864,
      "aren": 2865,
      "ami": 2866,
      "ille": 2867,
      "iron": 2868,
      "estab": 2869,
      "clar": 2870,
      "aust": 2871,
      "note": 2872,
      "owner": 2873,
      "portu": 2874,
      "osop": 2875,
      "minim": 2876,
      "lift": 2877,
      "runs": 2878,
      "singapore": 2879,
      "condition": 2880,
      "program": 2881,
      "miss": 2882,
      "groups": 2883,
      "ledge": 2884,
      "vehicles": 2885,
      "philosop": 2886,
      "streaming": 2887,
      "tomato": 2888,
      "premier": 2889,
      "execut": 2890,
      "august": 2891,
      "above": 2892,
      "elephant": 2893,
      "establish": 2894,
      "dim": 2895,
      "ired": 2896,
      "nom": 2897,
      "nick": 2898,
      "pha": 2899,
      "pair": 2900,
      "rise": 2901,
      "tan": 2902,
      "tables": 2903,
      "zo": 2904,
      "alb": 2905,
      "eline": 2906,
      "terr": 2907,
      "claim": 2908,
      "ference": 2909,
      "phen": 2910,
      "monitor": 2911,
      "format": 2912,
      "position": 2913,
      "smart": 2914,
      "matter": 2915,
      "biggest": 2916,
      "multi": 2917,
      "currently": 2918,
      "economy": 2919,
      "selling": 2920,
      "dinner": 2921,
      "championships": 2922,
      "purchase": 2923,
      "intelligence": 2924,
      "introdu": 2925,
      "father": 2926,
      "gress": 2927,
      "jul": 2928,
      "mes": 2929,
      "nic": 2930,
      "nation": 2931,
      "spl": 2932,
      "ule": 2933,
      "uals": 2934,
      "wis": 2935,
      "reli": 2936,
      "aland": 2937,
      "ariz": 2938,
      "whale": 2939,
      "sep": 2940,
      "vegan": 2941,
      "entire": 2942,
      "demand": 2943,
      "ays": 2944,
      "neigh": 2945,
      "carol": 2946,
      "collect": 2947,
      "berry": 2948,
      "classic": 2949,
      "content": 2950,
      "windows": 2951,
      "athlet": 2952,
      "vious": 2953,
      "lots": 2954,
      "legs": 2955,
      "title": 2956,
      "continu": 2957,
      "community": 2958,
      "devices": 2959,
      "appear": 2960,
      "restaurants": 2961,
      "william": 2962,
      "museum": 2963,
      "argentina": 2964,
      "taylor": 2965,
      "21": 2966,
      "ave": 2967,
      "dge": 2968,
      "tac": 2969,
      "uary": 2970,
      "indoor": 2971,
      "reven": 2972,
      "alex": 2973,
      "arts": 2974,
      "death": 2975,
      "ady": 2976,
      "plu": 2977,
      "shot": 2978,
      "ctions": 2979,
      "cles": 2980,
      "clos": 2981,
      "sphere": 2982,
      "perfect": 2983,
      "comput": 2984,
      "forms": 2985,
      "speak": 2986,
      "airplane": 2987,
      "planes": 2988,
      "popularity": 2989,
      "biking": 2990,
      "sales": 2991,
      "growing": 2992,
      "flower": 2993,
      "additionally": 2994,
      "organization": 2995,
      "zealand": 2996,
      "clothing": 2997,
      "metho": 2998,
      "middle": 2999,
      "federal": 3000,
      "dutch": 3001,
      "pokemon": 3002,
      "hawaii": 3003,
      "bang": 3004,
      "cases": 3005,
      "fiction": 3006,
      "june": 3007,
      "lan": 3008,
      "nav": 3009,
      "oak": 3010,
      "vill": 3011,
      "wins": 3012,
      "ata": 3013,
      "ators": 3014,
      "ites": 3015,
      "icing": 3016,
      "accept": 3017,
      "user": 3018,
      "termin": 3019,
      "except": 3020,
      "ques": 3021,
      "divid": 3022,
      "lip": 3023,
      "lose": 3024,
      "actor": 3025,
      "brain": 3026,
      "drum": 3027,
      "therefore": 3028,
      "berries": 3029,
      "former": 3030,
      "final": 3031,
      "produce": 3032,
      "caused": 3033,
      "musical": 3034,
      "regard": 3035,
      "wheel": 3036,
      "eastern": 3037,
      "winning": 3038,
      "starts": 3039,
      "memory": 3040,
      "burg": 3041,
      "leading": 3042,
      "knowledge": 3043,
      "happen": 3044,
      "happy": 3045,
      "originally": 3046,
      "individuals": 3047,
      "problems": 3048,
      "categorize": 3049,
      "recommend": 3050,
      "material": 3051,
      "spoken": 3052,
      "sql": 3053,
      ".,": 3054,
      "..": 3055,
      "500": 3056,
      "aqu": 3057,
      "battle": 3058,
      "eye": 3059,
      "fest": 3060,
      "fight": 3061,
      "jan": 3062,
      "nar": 3063,
      "rings": 3064,
      "uction": 3065,
      "revol": 3066,
      "enn": 3067,
      "alpha": 3068,
      "ander": 3069,
      "sty": 3070,
      "acts": 3071,
      "ola": 3072,
      "union": 3073,
      "verb": 3074,
      "opin": 3075,
      "commer": 3076,
      "probab": 3077,
      "soil": 3078,
      "express": 3079,
      "kings": 3080,
      "2000": 3081,
      "ivity": 3082,
      "greek": 3083,
      "plays": 3084,
      "crit": 3085,
      "pression": 3086,
      "pressure": 3087,
      "finance": 3088,
      "visual": 3089,
      "gym": 3090,
      "bath": 3091,
      "odd": 3092,
      "broad": 3093,
      "schools": 3094,
      "communication": 3095,
      "additional": 3096,
      "society": 3097,
      "install": 3098,
      "records": 3099,
      "cookies": 3100,
      "required": 3101,
      "friendly": 3102,
      "ological": 3103,
      "analys": 3104,
      "entertain": 3105,
      "empire": 3106,
      "restaurant": 3107,
      "drinking": 3108,
      "screen": 3109,
      "girl": 3110,
      "grocer": 3111,
      "arizona": 3112,
      "methods": 3113,
      "22": 3114,
      "cular": 3115,
      "danger": 3116,
      "eag": 3117,
      "gon": 3118,
      "gam": 3119,
      "ji": 3120,
      "pas": 3121,
      "path": 3122,
      "rome": 3123,
      "rout": 3124,
      "ini": 3125,
      "index": 3126,
      "anced": 3127,
      "ony": 3128,
      "chem": 3129,
      "apart": 3130,
      "neu": 3131,
      "respect": 3132,
      "gram": 3133,
      "prize": 3134,
      "prior": 3135,
      "complet": 3136,
      "fox": 3137,
      "193": 3138,
      "followed": 3139,
      "oldest": 3140,
      "steel": 3141,
      "primarily": 3142,
      "application": 3143,
      "engineering": 3144,
      "particip": 3145,
      "bands": 3146,
      "magic": 3147,
      "climate": 3148,
      "describ": 3149,
      "official": 3150,
      "arctic": 3151,
      "distinct": 3152,
      "oregon": 3153,
      "direction": 3154,
      "80": 3155,
      "dum": 3156,
      "hall": 3157,
      "iet": 3158,
      "ike": 3159,
      "jour": 3160,
      "km": 3161,
      "las": 3162,
      "oth": 3163,
      "pad": 3164,
      "rac": 3165,
      "anci": 3166,
      "rept": 3167,
      "chor": 3168,
      "igr": 3169,
      "extra": 3170,
      "avoc": 3171,
      "ending": 3172,
      "phones": 3173,
      "izations": 3174,
      "nov": 3175,
      "join": 3176,
      "workout": 3177,
      "elements": 3178,
      "cape": 3179,
      "selves": 3180,
      "increases": 3181,
      "increasing": 3182,
      "traveling": 3183,
      "apples": 3184,
      "talk": 3185,
      "fastest": 3186,
      "colorado": 3187,
      "drop": 3188,
      "australian": 3189,
      "masters": 3190,
      "layer": 3191,
      "situ": 3192,
      "yoga": 3193,
      "diego": 3194,
      "potato": 3195,
      "grocery": 3196,
      "dic": 3197,
      "fail": 3198,
      "gia": 3199,
      "len": 3200,
      "via": 3201,
      "wed": 3202,
      "atmo": 3203,
      "asy": 3204,
      "root": 3205,
      "beha": 3206,
      "ife": 3207,
      "meal": 3208,
      "spot": 3209,
      "artist": 3210,
      "hemis": 3211,
      "blan": 3212,
      "serve": 3213,
      "catch": 3214,
      "insurance": 3215,
      "everything": 3216,
      "tember": 3217,
      "hardware": 3218,
      "interesting": 3219,
      "queen": 3220,
      "investment": 3221,
      "storm": 3222,
      "potatoes": 3223,
      "extrem": 3224,
      "david": 3225,
      "decision": 3226,
      "september": 3227,
      "analysis": 3228,
      "ancient": 3229,
      "hemisph": 3230,
      "\"?": 3231,
      "65": 3232,
      "90": 3233,
      "awards": 3234,
      "dess": 3235,
      "ged": 3236,
      "hat": 3237,
      "hou": 3238,
      "hood": 3239,
      "hip": 3240,
      "jun": 3241,
      "lou": 3242,
      "nad": 3243,
      "native": 3244,
      "rhy": 3245,
      "sant": 3246,
      "wich": 3247,
      "thom": 3248,
      "arab": 3249,
      "aries": 3250,
      "stan": 3251,
      "stro": 3252,
      "rote": 3253,
      "users": 3254,
      "imper": 3255,
      "track": 3256,
      "pean": 3257,
      "apache": 3258,
      "ooks": 3259,
      "spicy": 3260,
      "straw": 3261,
      "diverse": 3262,
      "lie": 3263,
      "bob": 3264,
      "prices": 3265,
      "features": 3266,
      "cardi": 3267,
      "mary": 3268,
      "flavor": 3269,
      "ief": 3270,
      "skill": 3271,
      "ibility": 3272,
      "disease": 3273,
      "snake": 3274,
      "hands": 3275,
      "directed": 3276,
      "operations": 3277,
      "benefit": 3278,
      "paid": 3279,
      "tasks": 3280,
      "defense": 3281,
      "galax": 3282,
      "scale": 3283,
      "episodes": 3284,
      "bridge": 3285,
      "dream": 3286,
      "target": 3287,
      "combination": 3288,
      "olympic": 3289,
      "relationships": 3290,
      "negative": 3291,
      "database": 3292,
      "necessary": 3293,
      "behavi": 3294,
      "23": 3295,
      "24": 3296,
      "27": 3297,
      "crow": 3298,
      "fan": 3299,
      "hous": 3300,
      "jim": 3301,
      "pict": 3302,
      "sides": 3303,
      "sense": 3304,
      "score": 3305,
      "ux": 3306,
      "wrote": 3307,
      "zone": 3308,
      "inten": 3309,
      "ero": 3310,
      "rec": 3311,
      "ara": 3312,
      "tok": 3313,
      "todd": 3314,
      "itzer": 3315,
      "chain": 3316,
      "ention": 3317,
      "beef": 3318,
      "ime": 3319,
      "unit": 3320,
      "true": 3321,
      "aging": 3322,
      "shor": 3323,
      "died": 3324,
      "resorts": 3325,
      "feed": 3326,
      "female": 3327,
      "iphone": 3328,
      "marath": 3329,
      "formed": 3330,
      "classes": 3331,
      "wars": 3332,
      "charge": 3333,
      "azure": 3334,
      "medium": 3335,
      "generation": 3336,
      "octo": 3337,
      "scen": 3338,
      "communicate": 3339,
      "paul": 3340,
      "approxim": 3341,
      "contains": 3342,
      "sandwich": 3343,
      "competition": 3344,
      "climbing": 3345,
      "recommended": 3346,
      "toyota": 3347,
      "fantasy": 3348,
      "responsible": 3349,
      "recogn": 3350,
      "phrase": 3351,
      "extremely": 3352,
      "cot": 3353,
      "cab": 3354,
      "eks": 3355,
      "egy": 3356,
      "jacks": 3357,
      "kil": 3358,
      "lights": 3359,
      "mul": 3360,
      "mort": 3361,
      "oh": 3362,
      "oven": 3363,
      "tam": 3364,
      "vict": 3365,
      "yl": 3366,
      "ret": 3367,
      "isa": 3368,
      "ald": 3369,
      "almost": 3370,
      "itary": 3371,
      "chlor": 3372,
      "iment": 3373,
      "adults": 3374,
      "trust": 3375,
      "estyle": 3376,
      "docum": 3377,
      "augh": 3378,
      "components": 3379,
      "dragon": 3380,
      "flag": 3381,
      "affect": 3382,
      "plement": 3383,
      "brea": 3384,
      "added": 3385,
      "said": 3386,
      "salad": 3387,
      "delic": 3388,
      "solution": 3389,
      "simply": 3390,
      "fried": 3391,
      "2017": 3392,
      "interests": 3393,
      "frank": 3394,
      "models": 3395,
      "electricity": 3396,
      "movement": 3397,
      "nuts": 3398,
      "views": 3399,
      "release": 3400,
      "georgia": 3401,
      "covered": 3402,
      "requirements": 3403,
      "breakfast": 3404,
      "dolph": 3405,
      "meeting": 3406,
      "habit": 3407,
      "customers": 3408,
      "austin": 3409,
      "egypt": 3410,
      "cil": 3411,
      "caffe": 3412,
      "ee": 3413,
      "eyes": 3414,
      "got": 3415,
      "hen": 3416,
      "honey": 3417,
      "tast": 3418,
      "zz": 3419,
      "thick": 3420,
      "inj": 3421,
      "inte": 3422,
      "ano": 3423,
      "report": 3424,
      "remember": 3425,
      "towards": 3426,
      "ican": 3427,
      "icks": 3428,
      "chair": 3429,
      "amster": 3430,
      "rose": 3431,
      "acade": 3432,
      "decre": 3433,
      "iders": 3434,
      "irt": 3435,
      "ably": 3436,
      "abilities": 3437,
      "teen": 3438,
      "proto": 3439,
      "utah": 3440,
      "boy": 3441,
      "izes": 3442,
      "flour": 3443,
      "correct": 3444,
      "themselves": 3445,
      "provided": 3446,
      "dynam": 3447,
      "instruct": 3448,
      "sunlight": 3449,
      "swed": 3450,
      "surf": 3451,
      "viet": 3452,
      "bonds": 3453,
      "trying": 3454,
      "legal": 3455,
      "experiences": 3456,
      "rule": 3457,
      "freed": 3458,
      "grapes": 3459,
      "instit": 3460,
      "tube": 3461,
      "breeds": 3462,
      "materials": 3463,
      "carolina": 3464,
      "approximately": 3465,
      "amsterdam": 3466,
      "40": 3467,
      "block": 3468,
      "cow": 3469,
      "dul": 3470,
      "link": 3471,
      "mph": 3472,
      "nal": 3473,
      "pel": 3474,
      "tles": 3475,
      "retr": 3476,
      "replace": 3477,
      "chi": 3478,
      "chat": 3479,
      "olive": 3480,
      "deci": 3481,
      "version": 3482,
      "keys": 3483,
      "utions": 3484,
      "spin": 3485,
      "ighter": 3486,
      "grav": 3487,
      "height": 3488,
      "emer": 3489,
      "ups": 3490,
      "clubs": 3491,
      "server": 3492,
      "providing": 3493,
      "moved": 3494,
      "produces": 3495,
      "border": 3496,
      "subst": 3497,
      "scul": 3498,
      "films": 3499,
      "triangle": 3500,
      "bigger": 3501,
      "directly": 3502,
      "vegetable": 3503,
      "vegetarian": 3504,
      "gives": 3505,
      "giving": 3506,
      "appropr": 3507,
      "miami": 3508,
      "circle": 3509,
      "dollar": 3510,
      "drinks": 3511,
      "constit": 3512,
      "labor": 3513,
      "shaped": 3514,
      "architecture": 3515,
      "dangerous": 3516,
      "neutr": 3517,
      "hemisphere": 3518,
      "jackson": 3519,
      "60": 3520,
      "cies": 3521,
      "fal": 3522,
      "goods": 3523,
      "ht": 3524,
      "ius": 3525,
      "lack": 3526,
      "rick": 3527,
      "riding": 3528,
      "uts": 3529,
      "zen": 3530,
      "onto": 3531,
      "atom": 3532,
      "ising": 3533,
      "alan": 3534,
      "icop": 3535,
      "stain": 3536,
      "enty": 3537,
      "igan": 3538,
      "ulations": 3539,
      "doctor": 3540,
      "neither": 3541,
      "soon": 3542,
      "mathem": 3543,
      "exact": 3544,
      "coin": 3545,
      "print": 3546,
      "princ": 3547,
      "dram": 3548,
      "owned": 3549,
      "cris": 3550,
      "helicop": 3551,
      "previous": 3552,
      "letters": 3553,
      "medical": 3554,
      "surv": 3555,
      "apply": 3556,
      "powerful": 3557,
      "leagues": 3558,
      "rooms": 3559,
      "stories": 3560,
      "flying": 3561,
      "roller": 3562,
      "spending": 3563,
      "structure": 3564,
      "degree": 3565,
      "smooth": 3566,
      "mammal": 3567,
      "shoot": 3568,
      "receive": 3569,
      "particularly": 3570,
      "alternative": 3571,
      "deliver": 3572,
      "manager": 3573,
      "safety": 3574,
      "hydrogen": 3575,
      "placed": 3576,
      "alphabet": 3577,
      "freedom": 3578,
      "retrie": 3579,
      "decide": 3580,
      "bone": 3581,
      "ees": 3582,
      "hind": 3583,
      "ming": 3584,
      "mile": 3585,
      "sen": 3586,
      "sort": 3587,
      "sens": 3588,
      "wil": 3589,
      "yard": 3590,
      "isation": 3591,
      "tower": 3592,
      "itation": 3593,
      "seem": 3594,
      "accompl": 3595,
      "allig": 3596,
      "usage": 3597,
      "mole": 3598,
      "mother": 3599,
      "comed": 3600,
      "cts": 3601,
      "erson": 3602,
      "soda": 3603,
      "excell": 3604,
      "gear": 3605,
      "artists": 3606,
      "goes": 3607,
      "bles": 3608,
      "creates": 3609,
      "evol": 3610,
      "oscar": 3611,
      "finish": 3612,
      "brew": 3613,
      "forest": 3614,
      "keyboard": 3615,
      "switzer": 3616,
      "poly": 3617,
      "viol": 3618,
      "2016": 3619,
      "virt": 3620,
      "rainbow": 3621,
      "engineers": 3622,
      "johnson": 3623,
      "painting": 3624,
      "reflect": 3625,
      "piece": 3626,
      "pieces": 3627,
      "steps": 3628,
      "madrid": 3629,
      "alcoholic": 3630,
      "couple": 3631,
      "savings": 3632,
      "royal": 3633,
      "fifa": 3634,
      "russia": 3635,
      "atlantic": 3636,
      "opportunity": 3637,
      "caffeine": 3638,
      "switzerland": 3639,
      "25": 3640,
      "49": 3641,
      "cash": 3642,
      "dar": 3643,
      "dun": 3644,
      "file": 3645,
      "hl": 3646,
      "iques": 3647,
      "mut": 3648,
      "nut": 3649,
      "pitch": 3650,
      "push": 3651,
      "sir": 3652,
      "tts": 3653,
      "tics": 3654,
      "woods": 3655,
      "yan": 3656,
      "thous": 3657,
      "restr": 3658,
      "remove": 3659,
      "islands": 3660,
      "edge": 3661,
      "amph": 3662,
      "ili": 3663,
      "rocks": 3664,
      "adap": 3665,
      "otes": 3666,
      "ira": 3667,
      "comb": 3668,
      "concer": 3669,
      "ively": 3670,
      "dia": 3671,
      "artific": 3672,
      "gran": 3673,
      "grade": 3674,
      "achuse": 3675,
      "mostly": 3676,
      "greg": 3677,
      "counter": 3678,
      "speaking": 3679,
      "please": 3680,
      "launch": 3681,
      "evidence": 3682,
      "disney": 3683,
      "save": 3684,
      "wheels": 3685,
      "trek": 3686,
      "networks": 3687,
      "surround": 3688,
      "winners": 3689,
      "visiting": 3690,
      "transfer": 3691,
      "babies": 3692,
      "graphy": 3693,
      "particles": 3694,
      "flute": 3695,
      "explor": 3696,
      "explain": 3697,
      "device": 3698,
      "massachuse": 3699,
      "oxy": 3700,
      "silver": 3701,
      "minister": 3702,
      "finger": 3703,
      "flex": 3704,
      "continuous": 3705,
      "styles": 3706,
      "commercial": 3707,
      "atmosphere": 3708,
      "galaxy": 3709,
      "thousand": 3710,
      "artificial": 3711,
      "massachusetts": 3712,
      "28": 3713,
      "dash": 3714,
      "equal": 3715,
      "kang": 3716,
      "lers": 3717,
      "mouse": 3718,
      "pon": 3719,
      "pun": 3720,
      "pts": 3721,
      "padd": 3722,
      "rou": 3723,
      "rup": 3724,
      "sain": 3725,
      "uate": 3726,
      "ville": 3727,
      "enced": 3728,
      "encing": 3729,
      "ales": 3730,
      "alone": 3731,
      "already": 3732,
      "lego": 3733,
      "bean": 3734,
      "forward": 3735,
      "demo": 3736,
      "decl": 3737,
      "decor": 3738,
      "aller": 3739,
      "mode": 3740,
      "ids": 3741,
      "spread": 3742,
      "resort": 3743,
      "oodle": 3744,
      "goat": 3745,
      "completed": 3746,
      "colo": 3747,
      "cket": 3748,
      "listed": 3749,
      "tenance": 3750,
      "formula": 3751,
      "rent": 3752,
      "normal": 3753,
      "fishing": 3754,
      "regions": 3755,
      "wheat": 3756,
      "attention": 3757,
      "sunny": 3758,
      "singer": 3759,
      "maintenance": 3760,
      "courage": 3761,
      "computers": 3762,
      "189": 3763,
      "rolling": 3764,
      "beaches": 3765,
      "damage": 3766,
      "tails": 3767,
      "thought": 3768,
      "billion": 3769,
      "african": 3770,
      "destination": 3771,
      "issues": 3772,
      "habits": 3773,
      "functional": 3774,
      "political": 3775,
      "seeds": 3776,
      "ultimately": 3777,
      "neighbor": 3778,
      "houston": 3779,
      "louis": 3780,
      "imperial": 3781,
      "integr": 3782,
      "sweden": 3783,
      ",\"": 3784,
      "26": 3785,
      "45": 3786,
      "bc": 3787,
      "eper": 3788,
      "eight": 3789,
      "gers": 3790,
      "het": 3791,
      "iest": 3792,
      "jup": 3793,
      "jump": 3794,
      "kay": 3795,
      "lun": 3796,
      "lakes": 3797,
      "mir": 3798,
      "pit": 3799,
      "ports": 3800,
      "rang": 3801,
      "site": 3802,
      "tel": 3803,
      "vio": 3804,
      "oni": 3805,
      "ised": 3806,
      "assets": 3807,
      "itself": 3808,
      "sta": 3809,
      "sters": 3810,
      "aret": 3811,
      "oles": 3812,
      "usion": 3813,
      "immed": 3814,
      "implement": 3815,
      "advent": 3816,
      "plot": 3817,
      "traf": 3818,
      "ops": 3819,
      "ophone": 3820,
      "comfor": 3821,
      "comfort": 3822,
      "compris": 3823,
      "agu": 3824,
      "constr": 3825,
      "tee": 3826,
      "meals": 3827,
      "maine": 3828,
      "quant": 3829,
      "quite": 3830,
      "stra": 3831,
      "istan": 3832,
      "diam": 3833,
      "lide": 3834,
      "assist": 3835,
      "pher": 3836,
      "drag": 3837,
      "greater": 3838,
      "ansas": 3839,
      "tends": 3840,
      "interact": 3841,
      "count": 3842,
      "aka": 3843,
      "daylight": 3844,
      "presents": 3845,
      "trail": 3846,
      "trade": 3847,
      "saw": 3848,
      "easter": 3849,
      "relatively": 3850,
      "purple": 3851,
      "swim": 3852,
      "published": 3853,
      "brother": 3854,
      "domin": 3855,
      "technolog": 3856,
      "techniques": 3857,
      "programs": 3858,
      "happ": 3859,
      "hike": 3860,
      "watching": 3861,
      "lux": 3862,
      "bottle": 3863,
      "tomatoes": 3864,
      "constant": 3865,
      "leadership": 3866,
      "website": 3867,
      "budget": 3868,
      "split": 3869,
      "revenue": 3870,
      "probably": 3871,
      "marathon": 3872,
      "october": 3873,
      "appropriate": 3874,
      "bm": 3875,
      "bes": 3876,
      "beng": 3877,
      "cia": 3878,
      "fel": 3879,
      "gol": 3880,
      "jay": 3881,
      "rare": 3882,
      "rav": 3883,
      "sold": 3884,
      "tips": 3885,
      "vote": 3886,
      "wolf": 3887,
      "ya": 3888,
      "repe": 3889,
      "republic": 3890,
      "onion": 3891,
      "aspect": 3892,
      "edible": 3893,
      "chur": 3894,
      "chev": 3895,
      "chron": 3896,
      "ilies": 3897,
      "imag": 3898,
      "mote": 3899,
      "adam": 3900,
      "plate": 3901,
      "urt": 3902,
      "aged": 3903,
      "agree": 3904,
      "shel": 3905,
      "canyon": 3906,
      "apor": 3907,
      "illa": 3908,
      "percent": 3909,
      "liver": 3910,
      "lost": 3911,
      "loved": 3912,
      "boil": 3913,
      "carry": 3914,
      "upon": 3915,
      "coli": 3916,
      "colour": 3917,
      "creation": 3918,
      "creating": 3919,
      "bub": 3920,
      "genre": 3921,
      "joe": 3922,
      "symp": 3923,
      "distr": 3924,
      "cake": 3925,
      "smell": 3926,
      "lifestyle": 3927,
      "harv": 3928,
      "factor": 3929,
      "locations": 3930,
      "valley": 3931,
      "winner": 3932,
      "polar": 3933,
      "2014": 3934,
      "military": 3935,
      "burn": 3936,
      "reducing": 3937,
      "happens": 3938,
      "payment": 3939,
      "volume": 3940,
      "continue": 3941,
      "exercises": 3942,
      "objective": 3943,
      "amounts": 3944,
      "linux": 3945,
      "liter": 3946,
      "bottom": 3947,
      "understanding": 3948,
      "taxes": 3949,
      "temperatures": 3950,
      "changing": 3951,
      "defined": 3952,
      "empty": 3953,
      "employees": 3954,
      "synthe": 3955,
      "historical": 3956,
      "independent": 3957,
      "predict": 3958,
      "scott": 3959,
      "divided": 3960,
      "completely": 3961,
      "avocado": 3962,
      "delicious": 3963,
      "traffic": 3964,
      "cs": 3965,
      "cad": 3966,
      "dies": 3967,
      "gian": 3968,
      "gather": 3969,
      "hil": 3970,
      "kit": 3971,
      "kick": 3972,
      "kore": 3973,
      "ror": 3974,
      "rag": 3975,
      "uber": 3976,
      "uck": 3977,
      "va": 3978,
      "went": 3979,
      "wake": 3980,
      "xi": 3981,
      "zard": 3982,
      "onom": 3983,
      "aling": 3984,
      "alkal": 3985,
      "iting": 3986,
      "itude": 3987,
      "deer": 3988,
      "api": 3989,
      "apol": 3990,
      "teeth": 3991,
      "util": 3992,
      "weap": 3993,
      "loan": 3994,
      "grill": 3995,
      "authen": 3996,
      "autom": 3997,
      "feat": 3998,
      "monkey": 3999,
      "bled": 4000,
      "consult": 4001,
      "anyone": 4002,
      "positions": 4003,
      "minnes": 4004,
      "smith": 4005,
      "jew": 4006,
      "generate": 4007,
      "functions": 4008,
      "commit": 4009,
      "soup": 4010,
      "wonder": 4011,
      "meters": 4012,
      "metric": 4013,
      "filter": 4014,
      "physics": 4015,
      "volcan": 4016,
      "practicing": 4017,
      "manufacturing": 4018,
      "michigan": 4019,
      "laws": 4020,
      "consumption": 4021,
      "sched": 4022,
      "scala": 4023,
      "recently": 4024,
      "destinations": 4025,
      "regularly": 4026,
      "sequence": 4027,
      "pull": 4028,
      "pilot": 4029,
      "jersey": 4030,
      "birthday": 4031,
      "pipeline": 4032,
      "moment": 4033,
      "quarterback": 4034,
      "established": 4035,
      "protocol": 4036,
      "jupiter": 4037,
      "comfortable": 4038,
      "technologies": 4039,
      "29": 4040,
      "35": 4041,
      "dates": 4042,
      "ech": 4043,
      "eco": 4044,
      "fash": 4045,
      "gent": 4046,
      "ias": 4047,
      "jes": 4048,
      "jam": 4049,
      "jet": 4050,
      "mg": 4051,
      "nas": 4052,
      "oop": 4053,
      "sin": 4054,
      "sed": 4055,
      "tul": 4056,
      "targ": 4057,
      "ug": 4058,
      "wy": 4059,
      "wol": 4060,
      "inse": 4061,
      "infr": 4062,
      "remote": 4063,
      "attract": 4064,
      "orient": 4065,
      "orbit": 4066,
      "alo": 4067,
      "algor": 4068,
      "asset": 4069,
      "toys": 4070,
      "cha": 4071,
      "vet": 4072,
      "vember": 4073,
      "ros": 4074,
      "roid": 4075,
      "depos": 4076,
      "else": 4077,
      "unlike": 4078,
      "adult": 4079,
      "sher": 4080,
      "absor": 4081,
      "condu": 4082,
      "lyn": 4083,
      "soap": 4084,
      "query": 4085,
      "outdoors": 4086,
      "ipal": 4087,
      "crack": 4088,
      "differences": 4089,
      "consin": 4090,
      "november": 4091,
      "airlines": 4092,
      "airplanes": 4093,
      "curry": 4094,
      "warri": 4095,
      "elect": 4096,
      "lifting": 4097,
      "hobb": 4098,
      "banking": 4099,
      "stephen": 4100,
      "turkey": 4101,
      "stored": 4102,
      "stocks": 4103,
      "holes": 4104,
      "ensive": 4105,
      "foundation": 4106,
      "garlic": 4107,
      "memor": 4108,
      "powered": 4109,
      "trained": 4110,
      "bull": 4111,
      "cuis": 4112,
      "virgin": 4113,
      "rug": 4114,
      "clock": 4115,
      "machines": 4116,
      "woman": 4117,
      "fuel": 4118,
      "croco": 4119,
      "message": 4120,
      "rapid": 4121,
      "composed": 4122,
      "projects": 4123,
      "hurric": 4124,
      "advantage": 4125,
      "advantages": 4126,
      "trumpet": 4127,
      "thinking": 4128,
      "sufficient": 4129,
      "fixed": 4130,
      "wisconsin": 4131,
      "tacos": 4132,
      "santa": 4133,
      "thomas": 4134,
      "houses": 4135,
      "picture": 4136,
      "shorter": 4137,
      "excellent": 4138,
      "virtual": 4139,
      "alkaline": 4140,
      "minnesota": 4141,
      "algorith": 4142,
      ")?": 4143,
      "75": 4144,
      "99": 4145,
      "ao": 4146,
      "ccoli": 4147,
      "dor": 4148,
      "dress": 4149,
      "gory": 4150,
      "jum": 4151,
      "kom": 4152,
      "nel": 4153,
      "nhl": 4154,
      "pir": 4155,
      "rab": 4156,
      "rix": 4157,
      "scat": 4158,
      "sounds": 4159,
      "tent": 4160,
      "yet": 4161,
      "enzy": 4162,
      "alab": 4163,
      "aroo": 4164,
      "toms": 4165,
      "chop": 4166,
      "chief": 4167,
      "sem": 4168,
      "roast": 4169,
      "robert": 4170,
      "beth": 4171,
      "dece": 4172,
      "deploy": 4173,
      "determin": 4174,
      "depression": 4175,
      "etic": 4176,
      "terrain": 4177,
      "mood": 4178,
      "ador": 4179,
      "adject": 4180,
      "adjust": 4181,
      "shark": 4182,
      "wives": 4183,
      "concept": 4184,
      "contribut": 4185,
      "exchange": 4186,
      "lix": 4187,
      "libr": 4188,
      "reser": 4189,
      "pron": 4190,
      "prince": 4191,
      "bris": 4192,
      "notes": 4193,
      "2010": 4194,
      "mond": 4195,
      "190": 4196,
      "noise": 4197,
      "follows": 4198,
      "classified": 4199,
      "eval": 4200,
      "anything": 4201,
      "aryen": 4202,
      "planning": 4203,
      "parties": 4204,
      "partner": 4205,
      "posed": 4206,
      "letter": 4207,
      "element": 4208,
      "address": 4209,
      "numer": 4210,
      "regis": 4211,
      "hybrid": 4212,
      "cycl": 4213,
      "pursu": 4214,
      "swift": 4215,
      "shower": 4216,
      "processes": 4217,
      "incredi": 4218,
      "allowing": 4219,
      "keeping": 4220,
      "broccoli": 4221,
      "passion": 4222,
      "hadoop": 4223,
      "engineer": 4224,
      "graphic": 4225,
      "150": 4226,
      "cultural": 4227,
      "nuclear": 4228,
      "equival": 4229,
      "boxing": 4230,
      "category": 4231,
      "circum": 4232,
      "lebron": 4233,
      "amazing": 4234,
      "association": 4235,
      "troph": 4236,
      "camping": 4237,
      "copper": 4238,
      "sharp": 4239,
      "extreme": 4240,
      "kinds": 4241,
      "influence": 4242,
      "scientific": 4243,
      "challenging": 4244,
      "patterns": 4245,
      "laptop": 4246,
      "tallest": 4247,
      "album": 4248,
      "july": 4249,
      "revolution": 4250,
      "reptiles": 4251,
      "document": 4252,
      "helicopter": 4253,
      "kangaroo": 4254,
      "straight": 4255,
      "church": 4256,
      "fashion": 4257,
      "targaryen": 4258,
      "alabama": 4259,
      "\":": 4260,
      "'.": 4261,
      "gies": 4262,
      "gary": 4263,
      "hib": 4264,
      "kh": 4265,
      "ked": 4266,
      "kitch": 4267,
      "looks": 4268,
      "nast": 4269,
      "ole": 4270,
      "pus": 4271,
      "inal": 4272,
      "anas": 4273,
      "ises": 4274,
      "asian": 4275,
      "chris": 4276,
      "secre": 4277,
      "entially": 4278,
      "becomes": 4279,
      "behind": 4280,
      "older": 4281,
      "tration": 4282,
      "ope": 4283,
      "ophy": 4284,
      "peace": 4285,
      "agen": 4286,
      "shown": 4287,
      "aps": 4288,
      "conf": 4289,
      "maxim": 4290,
      "sustain": 4291,
      "worms": 4292,
      "essential": 4293,
      "assign": 4294,
      "bry": 4295,
      "ivo": 4296,
      "cript": 4297,
      "bug": 4298,
      "formal": 4299,
      "knife": 4300,
      "included": 4301,
      "datas": 4302,
      "syd": 4303,
      "sym": 4304,
      "airy": 4305,
      "desk": 4306,
      "cury": 4307,
      "osaur": 4308,
      "visible": 4309,
      "minute": 4310,
      "mercury": 4311,
      "attach": 4312,
      "attack": 4313,
      "bio": 4314,
      "funds": 4315,
      "baking": 4316,
      "standing": 4317,
      "aware": 4318,
      "setting": 4319,
      "handle": 4320,
      "grown": 4321,
      "applied": 4322,
      "enjoyable": 4323,
      "technique": 4324,
      "motion": 4325,
      "boost": 4326,
      "marketing": 4327,
      "millions": 4328,
      "squash": 4329,
      "sleeping": 4330,
      "roads": 4331,
      "presidents": 4332,
      "structured": 4333,
      "characteristics": 4334,
      "property": 4335,
      "citiz": 4336,
      "involves": 4337,
      "existing": 4338,
      "expected": 4339,
      "columbia": 4340,
      "eventually": 4341,
      "suitable": 4342,
      "occurs": 4343,
      "emotions": 4344,
      "double": 4345,
      "scored": 4346,
      "portugal": 4347,
      "computing": 4348,
      "recip": 4349,
      "dolphin": 4350,
      "oxygen": 4351,
      "democr": 4352,
      "bmw": 4353,
      "symptoms": 4354,
      "district": 4355,
      "equivalent": 4356,
      "70": 4357,
      "aid": 4358,
      "bach": 4359,
      "bind": 4360,
      "cere": 4361,
      "fict": 4362,
      "flix": 4363,
      "hang": 4364,
      "hills": 4365,
      "jon": 4366,
      "jaz": 4367,
      "kim": 4368,
      "kaf": 4369,
      "oon": 4370,
      "pour": 4371,
      "pup": 4372,
      "rig": 4373,
      "rics": 4374,
      "slo": 4375,
      "vine": 4376,
      "vod": 4377,
      "waf": 4378,
      "anth": 4379,
      "theory": 4380,
      "refr": 4381,
      "renew": 4382,
      "atory": 4383,
      "atives": 4384,
      "alle": 4385,
      "leave": 4386,
      "chips": 4387,
      "velo": 4388,
      "ila": 4389,
      "accur": 4390,
      "eter": 4391,
      "mod": 4392,
      "pler": 4393,
      "estate": 4394,
      "conce": 4395,
      "conference": 4396,
      "lywood": 4397,
      "hai": 4398,
      "strat": 4399,
      "peru": 4400,
      "ateful": 4401,
      "istic": 4402,
      "divers": 4403,
      "division": 4404,
      "weights": 4405,
      "boots": 4406,
      "bodies": 4407,
      "ferr": 4408,
      "aud": 4409,
      "hear": 4410,
      "bright": 4411,
      "owners": 4412,
      "joke": 4413,
      "skate": 4414,
      "pret": 4415,
      "breaking": 4416,
      "miner": 4417,
      "elev": 4418,
      "charles": 4419,
      "mush": 4420,
      "sail": 4421,
      "meditation": 4422,
      "choices": 4423,
      "salmon": 4424,
      "bai": 4425,
      "wonders": 4426,
      "stove": 4427,
      "netflix": 4428,
      "variet": 4429,
      "bench": 4430,
      "stars": 4431,
      "2004": 4432,
      "stret": 4433,
      "tooth": 4434,
      "director": 4435,
      "rub": 4436,
      "cups": 4437,
      "sheep": 4438,
      "organizations": 4439,
      "limit": 4440,
      "horn": 4441,
      "nutri": 4442,
      "falls": 4443,
      "connected": 4444,
      "farm": 4445,
      "fitness": 4446,
      "offered": 4447,
      "belongs": 4448,
      "hitting": 4449,
      "beauty": 4450,
      "satis": 4451,
      "statistics": 4452,
      "beginning": 4453,
      "latin": 4454,
      "homes": 4455,
      "olympics": 4456,
      "fifth": 4457,
      "novels": 4458,
      "christian": 4459,
      "cherry": 4460,
      "challenges": 4461,
      "corporate": 4462,
      "truck": 4463,
      "frequently": 4464,
      "strategy": 4465,
      "branch": 4466,
      "introduced": 4467,
      "regarded": 4468,
      "tokyo": 4469,
      "amphib": 4470,
      "violet": 4471,
      "construction": 4472,
      "warriors": 4473,
      "kitchen": 4474,
      "vodka": 4475,
      "bom": 4476,
      "bloc": 4477,
      "ece": 4478,
      "fine": 4479,
      "hus": 4480,
      "hindi": 4481,
      "ja": 4482,
      "jin": 4483,
      "kr": 4484,
      "none": 4485,
      "pill": 4486,
      "ried": 4487,
      "rides": 4488,
      "sad": 4489,
      "vit": 4490,
      "ww": 4491,
      "wet": 4492,
      "thlon": 4493,
      "erts": 4494,
      "thes": 4495,
      "attem": 4496,
      "ento": 4497,
      "arms": 4498,
      "stark": 4499,
      "lets": 4500,
      "whom": 4501,
      "oming": 4502,
      "cham": 4503,
      "ental": 4504,
      "bever": 4505,
      "acc": 4506,
      "acle": 4507,
      "iff": 4508,
      "ette": 4509,
      "adopt": 4510,
      "plus": 4511,
      "shots": 4512,
      "conver": 4513,
      "neck": 4514,
      "lying": 4515,
      "math": 4516,
      "expand": 4517,
      "quer": 4518,
      "quiet": 4519,
      "diag": 4520,
      "boys": 4521,
      "avors": 4522,
      "drill": 4523,
      "iza": 4524,
      "carrot": 4525,
      "blind": 4526,
      "taken": 4527,
      "crete": 4528,
      "marine": 4529,
      "marks": 4530,
      "ideal": 4531,
      "earn": 4532,
      "iance": 4533,
      "nose": 4534,
      "genres": 4535,
      "classical": 4536,
      "desert": 4537,
      "topic": 4538,
      "adding": 4539,
      "provin": 4540,
      "cade": 4541,
      "trails": 4542,
      "captain": 4543,
      "medic": 4544,
      "snap": 4545,
      "attend": 4546,
      "treas": 4547,
      "turtle": 4548,
      "metro": 4549,
      "switch": 4550,
      "powder": 4551,
      "2015": 4552,
      "bush": 4553,
      "increased": 4554,
      "interested": 4555,
      "took": 4556,
      "seasoning": 4557,
      "titan": 4558,
      "ucture": 4559,
      "champions": 4560,
      "majority": 4561,
      "costs": 4562,
      "cutting": 4563,
      "nutr": 4564,
      "advanced": 4565,
      "explore": 4566,
      "competitive": 4567,
      "cumul": 4568,
      "focuses": 4569,
      "belief": 4570,
      "annual": 4571,
      "nearly": 4572,
      "ukule": 4573,
      "manufacturers": 4574,
      "weekend": 4575,
      "shoe": 4576,
      "represented": 4577,
      "trop": 4578,
      "messi": 4579,
      "platforms": 4580,
      "involved": 4581,
      "prepared": 4582,
      "celebrated": 4583,
      "suggestions": 4584,
      "scientists": 4585,
      "christmas": 4586,
      "independence": 4587,
      "russian": 4588,
      "astructure": 4589,
      "calculus": 4590,
      "separate": 4591,
      "nitro": 4592,
      "athletes": 4593,
      "festival": 4594,
      "critical": 4595,
      "journey": 4596,
      "behavior": 4597,
      "chlorophy": 4598,
      "emergen": 4599,
      "mathemat": 4600,
      "route": 4601,
      "infrastructure": 4602,
      "december": 4603,
      "sydney": 4604,
      "kafka": 4605,
      "ukulele": 4606,
      "31": 4607,
      "fda": 4608,
      "gul": 4609,
      "gins": 4610,
      "gift": 4611,
      "hence": 4612,
      "iately": 4613,
      "jing": 4614,
      "kel": 4615,
      "kir": 4616,
      "lag": 4617,
      "master": 4618,
      "migr": 4619,
      "nations": 4620,
      "pings": 4621,
      "psy": 4622,
      "pork": 4623,
      "rh": 4624,
      "sac": 4625,
      "sop": 4626,
      "send": 4627,
      "ties": 4628,
      "tight": 4629,
      "wise": 4630,
      "waves": 4631,
      "ern": 4632,
      "reaction": 4633,
      "ension": 4634,
      "alty": 4635,
      "oul": 4636,
      "outer": 4637,
      "android": 4638,
      "iced": 4639,
      "eds": 4640,
      "stones": 4641,
      "oma": 4642,
      "chance": 4643,
      "sec": 4644,
      "vey": 4645,
      "forces": 4646,
      "moist": 4647,
      "uries": 4648,
      "peas": 4649,
      "estim": 4650,
      "agric": 4651,
      "shell": 4652,
      "shak": 4653,
      "shakes": 4654,
      "ounce": 4655,
      "spat": 4656,
      "spider": 4657,
      "exp": 4658,
      "covers": 4659,
      "weak": 4660,
      "grateful": 4661,
      "compar": 4662,
      "upper": 4663,
      "coll": 4664,
      "berg": 4665,
      "berlin": 4666,
      "earli": 4667,
      "veland": 4668,
      "nothing": 4669,
      "poses": 4670,
      "perspect": 4671,
      "moves": 4672,
      "traits": 4673,
      "cert": 4674,
      "housewives": 4675,
      "bananas": 4676,
      "delhi": 4677,
      "everyday": 4678,
      "healthcare": 4679,
      "stores": 4680,
      "holds": 4681,
      "smallest": 4682,
      "borrow": 4683,
      "seek": 4684,
      "2001": 4685,
      "mount": 4686,
      "technical": 4687,
      "peter": 4688,
      "investors": 4689,
      "investments": 4690,
      "continents": 4691,
      "cultures": 4692,
      "mike": 4693,
      "michel": 4694,
      "believ": 4695,
      "mixed": 4696,
      "accounts": 4697,
      "studies": 4698,
      "philip": 4699,
      "categories": 4700,
      "issue": 4701,
      "delivery": 4702,
      "tuna": 4703,
      "subjective": 4704,
      "improves": 4705,
      "religion": 4706,
      "scoring": 4707,
      "distributed": 4708,
      "cryptocurrency": 4709,
      "dimension": 4710,
      "eagle": 4711,
      "participate": 4712,
      "racing": 4713,
      "stroke": 4714,
      "ohio": 4715,
      "henry": 4716,
      "accomplish": 4717,
      "thousands": 4718,
      "saint": 4719,
      "happiness": 4720,
      "ivores": 4721,
      "jazz": 4722,
      "chlorophyll": 4723,
      "shakespe": 4724,
      "):": 4725,
      "blo": 4726,
      "bage": 4727,
      "cin": 4728,
      "dairy": 4729,
      "fab": 4730,
      "gium": 4731,
      "hits": 4732,
      "khan": 4733,
      "lady": 4734,
      "mr": 4735,
      "mur": 4736,
      "pc": 4737,
      "page": 4738,
      "pump": 4739,
      "rand": 4740,
      "rough": 4741,
      "rho": 4742,
      "sap": 4743,
      "slight": 4744,
      "tren": 4745,
      "uel": 4746,
      "za": 4747,
      "ancy": 4748,
      "review": 4749,
      "onions": 4750,
      "attribut": 4751,
      "ission": 4752,
      "ora": 4753,
      "encourage": 4754,
      "arrow": 4755,
      "toe": 4756,
      "tot": 4757,
      "stir": 4758,
      "whis": 4759,
      "chann": 4760,
      "una": 4761,
      "ads": 4762,
      "plenty": 4763,
      "oton": 4764,
      "trill": 4765,
      "pear": 4766,
      "shine": 4767,
      "shared": 4768,
      "convers": 4769,
      "sover": 4770,
      "max": 4771,
      "spag": 4772,
      "extern": 4773,
      "excit": 4774,
      "diving": 4775,
      "resident": 4776,
      "coding": 4777,
      "boards": 4778,
      "ferment": 4779,
      "anti": 4780,
      "grape": 4781,
      "brass": 4782,
      "bruary": 4783,
      "february": 4784,
      "ella": 4785,
      "coln": 4786,
      "marg": 4787,
      "fles": 4788,
      "tens": 4789,
      "rena": 4790,
      "afford": 4791,
      "gene": 4792,
      "genom": 4793,
      "jobs": 4794,
      "airport": 4795,
      "presso": 4796,
      "ireland": 4797,
      "breath": 4798,
      "myth": 4799,
      "cleveland": 4800,
      "helpful": 4801,
      "intended": 4802,
      "guar": 4803,
      "guese": 4804,
      "pencil": 4805,
      "spectrum": 4806,
      "medals": 4807,
      "fund": 4808,
      "wrap": 4809,
      "steam": 4810,
      "venus": 4811,
      "values": 4812,
      "policy": 4813,
      "bara": 4814,
      "allowed": 4815,
      "sourdough": 4816,
      "burger": 4817,
      "2002": 4818,
      "2005": 4819,
      "2006": 4820,
      "2008": 4821,
      "patri": 4822,
      "arsen": 4823,
      "lime": 4824,
      "limits": 4825,
      "1980s": 4826,
      "lincoln": 4827,
      "hunt": 4828,
      "effects": 4829,
      "mexican": 4830,
      "belgium": 4831,
      "consume": 4832,
      "rivers": 4833,
      "oxide": 4834,
      "gains": 4835,
      "quarters": 4836,
      "filled": 4837,
      "decades": 4838,
      "candid": 4839,
      "debt": 4840,
      "drivers": 4841,
      "mechanical": 4842,
      "beatles": 4843,
      "portuguese": 4844,
      "executive": 4845,
      "pluto": 4846,
      "opinion": 4847,
      "peanut": 4848,
      "kilomet": 4849,
      "survive": 4850,
      "retriever": 4851,
      "liverpool": 4852,
      "rugby": 4853,
      "pursue": 4854,
      "velocity": 4855,
      "ferrari": 4856,
      "nitrogen": 4857,
      "agricult": 4858,
      "shakespeare": 4859,
      "33": 4860,
      "300": 4861,
      "cules": 4862,
      "ean": 4863,
      "fc": 4864,
      "gone": 4865,
      "iop": 4866,
      "iation": 4867,
      "jab": 4868,
      "kansas": 4869,
      "lak": 4870,
      "pes": 4871,
      "pite": 4872,
      "rack": 4873,
      "rust": 4874,
      "sab": 4875,
      "scar": 4876,
      "wan": 4877,
      "theast": 4878,
      "reed": 4879,
      "reci": 4880,
      "removed": 4881,
      "represents": 4882,
      "isn": 4883,
      "ascript": 4884,
      "itely": 4885,
      "ionally": 4886,
      "elim": 4887,
      "iring": 4888,
      "irish": 4889,
      "fris": 4890,
      "clou": 4891,
      "clus": 4892,
      "geomet": 4893,
      "bohydr": 4894,
      "artic": 4895,
      "poet": 4896,
      "poison": 4897,
      "bron": 4898,
      "carbohydr": 4899,
      "indic": 4900,
      "whose": 4901,
      "bute": 4902,
      "buff": 4903,
      "betes": 4904,
      "worldwide": 4905,
      "engers": 4906,
      "calm": 4907,
      "despite": 4908,
      "families": 4909,
      "warf": 4910,
      "longest": 4911,
      "humid": 4912,
      "capac": 4913,
      "mediter": 4914,
      "hyper": 4915,
      "sung": 4916,
      "serving": 4917,
      "sett": 4918,
      "holland": 4919,
      "rectangle": 4920,
      "winds": 4921,
      "2011": 4922,
      "2012": 4923,
      "univers": 4924,
      "tribute": 4925,
      "passing": 4926,
      "writer": 4927,
      "paying": 4928,
      "huge": 4929,
      "economics": 4930,
      "explo": 4931,
      "oceans": 4932,
      "yog": 4933,
      "mixture": 4934,
      "belt": 4935,
      "ranean": 4936,
      "richard": 4937,
      "tournaments": 4938,
      "performed": 4939,
      "javascript": 4940,
      "alternatively": 4941,
      "audience": 4942,
      "slowly": 4943,
      "williams": 4944,
      "voice": 4945,
      "debate": 4946,
      "snowboarding": 4947,
      "pinot": 4948,
      "relaxing": 4949,
      "bacter": 4950,
      "baked": 4951,
      "munich": 4952,
      "clarinet": 4953,
      "entertainment": 4954,
      "arabic": 4955,
      "vietnam": 4956,
      "principal": 4957,
      "comedy": 4958,
      "diabetes": 4959,
      "trekking": 4960,
      "hetti": 4961,
      "jesus": 4962,
      "conduct": 4963,
      "hurricane": 4964,
      "enzyme": 4965,
      "renewable": 4966,
      "stretch": 4967,
      "tropical": 4968,
      "emergency": 4969,
      "spaghetti": 4970,
      "mediterranean": 4971,
      "32": 4972,
      "38": 4973,
      "48": 4974,
      "64": 4975,
      "95": 4976,
      "batt": 4977,
      "cers": 4978,
      "db": 4979,
      "dall": 4980,
      "daugh": 4981,
      "fred": 4982,
      "fats": 4983,
      "gum": 4984,
      "hd": 4985,
      "lac": 4986,
      "lav": 4987,
      "lamp": 4988,
      "nur": 4989,
      "nap": 4990,
      "pure": 4991,
      "raf": 4992,
      "tack": 4993,
      "tire": 4994,
      "wrest": 4995,
      "ym": 4996,
      "zel": 4997,
      "input": 4998,
      "anxi": 4999,
      "rema": 5000,
      "isol": 5001,
      "ordin": 5002,
      "ena": 5003,
      "enix": 5004,
      "alore": 5005,
      "andre": 5006,
      "stage": 5007,
      "lete": 5008,
      "secon": 5009,
      "ampl": 5010,
      "roger": 5011,
      "began": 5012,
      "dete": 5013,
      "youtube": 5014,
      "units": 5015,
      "tered": 5016,
      "plum": 5017,
      "vermont": 5018,
      "trig": 5019,
      "ura": 5020,
      "aggreg": 5021,
      "shut": 5022,
      "shire": 5023,
      "abdul": 5024,
      "cancer": 5025,
      "pros": 5026,
      "proced": 5027,
      "exc": 5028,
      "quet": 5029,
      "perce": 5030,
      "weigh": 5031,
      "actual": 5032,
      "actress": 5033,
      "antic": 5034,
      "gry": 5035,
      "prin": 5036,
      "poor": 5037,
      "wash": 5038,
      "feature": 5039,
      "ivia": 5040,
      "dra": 5041,
      "drums": 5042,
      "izer": 5043,
      "grey": 5044,
      "greece": 5045,
      "indig": 5046,
      "balls": 5047,
      "foss": 5048,
      "colon": 5049,
      "bernet": 5050,
      "flies": 5051,
      "speech": 5052,
      "portland": 5053,
      "skating": 5054,
      "helmet": 5055,
      "toppings": 5056,
      "minor": 5057,
      "merced": 5058,
      "norway": 5059,
      "regul": 5060,
      "raw": 5061,
      "raid": 5062,
      "sunshine": 5063,
      "request": 5064,
      "solve": 5065,
      "icted": 5066,
      "purposes": 5067,
      "wines": 5068,
      "starter": 5069,
      "borne": 5070,
      "2013": 5071,
      "suppl": 5072,
      "2007": 5073,
      "depth": 5074,
      "fourth": 5075,
      "profit": 5076,
      "linear": 5077,
      "password": 5078,
      "bullet": 5079,
      "reduces": 5080,
      "reduced": 5081,
      "luck": 5082,
      "1980": 5083,
      "ronal": 5084,
      "container": 5085,
      "hammer": 5086,
      "dedicated": 5087,
      "student": 5088,
      "denver": 5089,
      "saying": 5090,
      "walls": 5091,
      "domestic": 5092,
      "definition": 5093,
      "phoenix": 5094,
      "performing": 5095,
      "locked": 5096,
      "parent": 5097,
      "lionel": 5098,
      "tired": 5099,
      "consistent": 5100,
      "giant": 5101,
      "pineapple": 5102,
      "significantly": 5103,
      "decisions": 5104,
      "civilization": 5105,
      "candy": 5106,
      "opposite": 5107,
      "kiwi": 5108,
      "analytics": 5109,
      "opportunities": 5110,
      "saturn": 5111,
      "kubernet": 5112,
      "ownership": 5113,
      "appearance": 5114,
      "closed": 5115,
      "navig": 5116,
      "routine": 5117,
      "described": 5118,
      "strawberry": 5119,
      "cardio": 5120,
      "dynamic": 5121,
      "neutral": 5122,
      "dramas": 5123,
      "alligator": 5124,
      "aguar": 5125,
      "diamon": 5126,
      "schedule": 5127,
      "insects": 5128,
      "hobbies": 5129,
      "cuisine": 5130,
      "symbol": 5131,
      "perspective": 5132,
      "trillion": 5133,
      "external": 5134,
      "patriots": 5135,
      "recipe": 5136,
      "dallas": 5137,
      "seconds": 5138,
      "kubernetes": 5139,
      "aer": 5140,
      "bart": 5141,
      "dwarf": 5142,
      "f1": 5143,
      "gic": 5144,
      "gate": 5145,
      "lad": 5146,
      "lla": 5147,
      "loud": 5148,
      "lighter": 5149,
      "matt": 5150,
      "nd": 5151,
      "nik": 5152,
      "ost": 5153,
      "pors": 5154,
      "ray": 5155,
      "rier": 5156,
      "sized": 5157,
      "slide": 5158,
      "wick": 5159,
      "thur": 5160,
      "ined": 5161,
      "inches": 5162,
      "innov": 5163,
      "ank": 5164,
      "theore": 5165,
      "remain": 5166,
      "ati": 5167,
      "orph": 5168,
      "espresso": 5169,
      "enable": 5170,
      "altit": 5171,
      "army": 5172,
      "toast": 5173,
      "tofu": 5174,
      "itors": 5175,
      "stic": 5176,
      "leather": 5177,
      "chand": 5178,
      "chip": 5179,
      "rod": 5180,
      "becoming": 5181,
      "begins": 5182,
      "acqu": 5183,
      "accel": 5184,
      "detro": 5185,
      "eliza": 5186,
      "uni": 5187,
      "adian": 5188,
      "adminis": 5189,
      "idge": 5190,
      "trick": 5191,
      "peel": 5192,
      "peak": 5193,
      "construct": 5194,
      "ooter": 5195,
      "dodge": 5196,
      "ounced": 5197,
      "meant": 5198,
      "spots": 5199,
      "strike": 5200,
      "logo": 5201,
      "boe": 5202,
      "prise": 5203,
      "poon": 5204,
      "assum": 5205,
      "brad": 5206,
      "brought": 5207,
      "angular": 5208,
      "playoff": 5209,
      "playstation": 5210,
      "craf": 5211,
      "derived": 5212,
      "flavors": 5213,
      "dust": 5214,
      "interface": 5215,
      "iances": 5216,
      "nobel": 5217,
      "calories": 5218,
      "helium": 5219,
      "lettu": 5220,
      "topics": 5221,
      "guide": 5222,
      "muscles": 5223,
      "norm": 5224,
      "sax": 5225,
      "hog": 5226,
      "amese": 5227,
      "raise": 5228,
      "relative": 5229,
      "harris": 5230,
      "stein": 5231,
      "grows": 5232,
      "panels": 5233,
      "tiny": 5234,
      "talent": 5235,
      "waters": 5236,
      "putting": 5237,
      "tourist": 5238,
      "1993": 5239,
      "1997": 5240,
      "1999": 5241,
      "1990s": 5242,
      "markets": 5243,
      "investing": 5244,
      "operation": 5245,
      "connection": 5246,
      "instant": 5247,
      "clothes": 5248,
      "recorded": 5249,
      "hunter": 5250,
      "dinosaur": 5251,
      "lawn": 5252,
      "romantic": 5253,
      "similarly": 5254,
      "offering": 5255,
      "define": 5256,
      "wait": 5257,
      "vacc": 5258,
      "definitely": 5259,
      "tests": 5260,
      "status": 5261,
      "facts": 5262,
      "destroy": 5263,
      "floor": 5264,
      "expenses": 5265,
      "received": 5266,
      "geographic": 5267,
      "consistency": 5268,
      "audio": 5269,
      "ethiop": 5270,
      "measurement": 5271,
      "opposed": 5272,
      "hope": 5273,
      "atlanta": 5274,
      "shapes": 5275,
      "listening": 5276,
      "mlb": 5277,
      "framework": 5278,
      "ultimate": 5279,
      "websites": 5280,
      "initially": 5281,
      "speakers": 5282,
      "bangalore": 5283,
      "january": 5284,
      "grammy": 5285,
      "victor": 5286,
      "instructions": 5287,
      "gravity": 5288,
      "htt": 5289,
      "molecules": 5290,
      "adapt": 5291,
      "immediately": 5292,
      "adventure": 5293,
      "percentage": 5294,
      "giants": 5295,
      "korea": 5296,
      "oriented": 5297,
      "library": 5298,
      "cycling": 5299,
      "recipes": 5300,
      "varieties": 5301,
      "beverages": 5302,
      "spatial": 5303,
      "expans": 5304,
      "exciting": 5305,
      "universities": 5306,
      "yogurt": 5307,
      "mercedes": 5308,
      "porsche": 5309,
      "detroit": 5310,
      "lettuce": 5311,
      "++": 5312,
      "76": 5313,
      "88": 5314,
      "aks": 5315,
      "bast": 5316,
      "cd": 5317,
      "dirt": 5318,
      "ez": 5319,
      "fah": 5320,
      "gender": 5321,
      "hul": 5322,
      "jar": 5323,
      "jane": 5324,
      "lest": 5325,
      "lens": 5326,
      "mum": 5327,
      "pion": 5328,
      "pound": 5329,
      "pak": 5330,
      "pace": 5331,
      "races": 5332,
      "sess": 5333,
      "sink": 5334,
      "tig": 5335,
      "tau": 5336,
      "tamp": 5337,
      "vapor": 5338,
      "ws": 5339,
      "wings": 5340,
      "wider": 5341,
      "orn": 5342,
      "enon": 5343,
      "ened": 5344,
      "enge": 5345,
      "arc": 5346,
      "ascular": 5347,
      "toile": 5348,
      "iconic": 5349,
      "stations": 5350,
      "lee": 5351,
      "leon": 5352,
      "choo": 5353,
      "ament": 5354,
      "amine": 5355,
      "bei": 5356,
      "bees": 5357,
      "beings": 5358,
      "beyon": 5359,
      "ifi": 5360,
      "ung": 5361,
      "iga": 5362,
      "mosqu": 5363,
      "trom": 5364,
      "urally": 5365,
      "ceed": 5366,
      "shad": 5367,
      "shang": 5368,
      "shore": 5369,
      "shirt": 5370,
      "contract": 5371,
      "progress": 5372,
      "clay": 5373,
      "haven": 5374,
      "dioxide": 5375,
      "resol": 5376,
      "weeks": 5377,
      "loy": 5378,
      "actors": 5379,
      "boats": 5380,
      "boiling": 5381,
      "grain": 5382,
      "pride": 5383,
      "poem": 5384,
      "brady": 5385,
      "fear": 5386,
      "tai": 5387,
      "tape": 5388,
      "collabor": 5389,
      "marin": 5390,
      "bern": 5391,
      "basis": 5392,
      "crist": 5393,
      "bucha": 5394,
      "spect": 5395,
      "genetic": 5396,
      "jose": 5397,
      "firm": 5398,
      "syl": 5399,
      "americans": 5400,
      "presence": 5401,
      "llm": 5402,
      "myster": 5403,
      "dynast": 5404,
      "penn": 5405,
      "considering": 5406,
      "rail": 5407,
      "generated": 5408,
      "puck": 5409,
      "foreign": 5410,
      "command": 5411,
      "harp": 5412,
      "turning": 5413,
      "downhill": 5414,
      "occas": 5415,
      "developing": 5416,
      "tempor": 5417,
      "walks": 5418,
      "lastly": 5419,
      "buildings": 5420,
      "burning": 5421,
      "pson": 5422,
      "2003": 5423,
      "passed": 5424,
      "flows": 5425,
      "legend": 5426,
      "motiv": 5427,
      "cute": 5428,
      "talking": 5429,
      "transactions": 5430,
      "versions": 5431,
      "distances": 5432,
      "1998": 5433,
      "feelings": 5434,
      "bowls": 5435,
      "batman": 5436,
      "1984": 5437,
      "closer": 5438,
      "dancing": 5439,
      "kosher": 5440,
      "argue": 5441,
      "oils": 5442,
      "task": 5443,
      "accessible": 5444,
      "nearby": 5445,
      "martial": 5446,
      "cells": 5447,
      "achieved": 5448,
      "driven": 5449,
      "cleaning": 5450,
      "involve": 5451,
      "honda": 5452,
      "fantastic": 5453,
      "ield": 5454,
      "jerry": 5455,
      "response": 5456,
      "ovascular": 5457,
      "duration": 5458,
      "siamese": 5459,
      "religious": 5460,
      "spirit": 5461,
      "frozen": 5462,
      "figure": 5463,
      "contrast": 5464,
      "saturday": 5465,
      "itos": 5466,
      "branches": 5467,
      "minimum": 5468,
      "philosophy": 5469,
      "closest": 5470,
      "opinions": 5471,
      "chemical": 5472,
      "chord": 5473,
      "stanley": 5474,
      "cardiovascular": 5475,
      "intensity": 5476,
      "toddler": 5477,
      "mortg": 5478,
      "previously": 5479,
      "49ers": 5480,
      "flexible": 5481,
      "stapler": 5482,
      "comprised": 5483,
      "wolves": 5484,
      "kombucha": 5485,
      "adjective": 5486,
      "trophy": 5487,
      "bryant": 5488,
      "attached": 5489,
      "refriger": 5490,
      "mathematics": 5491,
      "believed": 5492,
      "totally": 5493,
      "pearl": 5494,
      "arsenal": 5495,
      "frisbee": 5496,
      "clouds": 5497,
      "capacity": 5498,
      "anxiety": 5499,
      "remains": 5500,
      "ronaldo": 5501,
      "acceler": 5502,
      "elizabeth": 5503,
      "tampa": 5504,
      "--": 5505,
      ".)": 5506,
      "2nd": 5507,
      "?\"": 5508,
      "aero": 5509,
      "bby": 5510,
      "cac": 5511,
      "cable": 5512,
      "dir": 5513,
      "ec": 5514,
      "gely": 5515,
      "gases": 5516,
      "goose": 5517,
      "hp": 5518,
      "hamm": 5519,
      "kins": 5520,
      "lent": 5521,
      "lions": 5522,
      "mers": 5523,
      "mite": 5524,
      "ni": 5525,
      "nail": 5526,
      "peng": 5527,
      "rd": 5528,
      "ras": 5529,
      "ria": 5530,
      "sals": 5531,
      "slip": 5532,
      "tab": 5533,
      "tik": 5534,
      "vada": 5535,
      "wel": 5536,
      "wers": 5537,
      "intake": 5538,
      "react": 5539,
      "attr": 5540,
      "enables": 5541,
      "enhan": 5542,
      "ingest": 5543,
      "itter": 5544,
      "leav": 5545,
      "leaf": 5546,
      "chim": 5547,
      "rolet": 5548,
      "robin": 5549,
      "acou": 5550,
      "olk": 5551,
      "demon": 5552,
      "ayan": 5553,
      "uss": 5554,
      "opard": 5555,
      "urban": 5556,
      "agent": 5557,
      "agram": 5558,
      "shin": 5559,
      "abra": 5560,
      "app": 5561,
      "context": 5562,
      "convert": 5563,
      "dod": 5564,
      "tequ": 5565,
      "proof": 5566,
      "worm": 5567,
      "diver": 5568,
      "coat": 5569,
      "coal": 5570,
      "loans": 5571,
      "heit": 5572,
      "waste": 5573,
      "feather": 5574,
      "iped": 5575,
      "phas": 5576,
      "emic": 5577,
      "carn": 5578,
      "monet": 5579,
      "answers": 5580,
      "cipl": 5581,
      "cious": 5582,
      "margar": 5583,
      "married": 5584,
      "basil": 5585,
      "crash": 5586,
      "duck": 5587,
      "interior": 5588,
      "servers": 5589,
      "rence": 5590,
      "rental": 5591,
      "renheit": 5592,
      "genus": 5593,
      "newton": 5594,
      "portion": 5595,
      "twitter": 5596,
      "corner": 5597,
      "thanks": 5598,
      "largely": 5599,
      "diseas": 5600,
      "discipl": 5601,
      "breast": 5602,
      "election": 5603,
      "providers": 5604,
      "penalty": 5605,
      "runner": 5606,
      "snakes": 5607,
      "hypo": 5608,
      "delph": 5609,
      "statement": 5610,
      "hero": 5611,
      "window": 5612,
      "powers": 5613,
      "variations": 5614,
      "surfing": 5615,
      "valent": 5616,
      "processed": 5617,
      "studi": 5618,
      "boarding": 5619,
      "busy": 5620,
      "subway": 5621,
      "naturally": 5622,
      "productive": 5623,
      "productivity": 5624,
      "panther": 5625,
      "transaction": 5626,
      "reference": 5627,
      "ahu": 5628,
      "origins": 5629,
      "originated": 5630,
      "facebook": 5631,
      "chickens": 5632,
      "horiz": 5633,
      "instagram": 5634,
      "drople": 5635,
      "speeds": 5636,
      "mith": 5637,
      "immigr": 5638,
      "britain": 5639,
      "cooked": 5640,
      "advance": 5641,
      "preferences": 5642,
      "layers": 5643,
      "furnit": 5644,
      "competitions": 5645,
      "bitter": 5646,
      "doll": 5647,
      "traditionally": 5648,
      "enterpris": 5649,
      "consumer": 5650,
      "staying": 5651,
      "wave": 5652,
      "fuels": 5653,
      "smoking": 5654,
      "cryst": 5655,
      "static": 5656,
      "beginner": 5657,
      "officer": 5658,
      "madness": 5659,
      "samsung": 5660,
      "wearing": 5661,
      "reaching": 5662,
      "industrial": 5663,
      "closely": 5664,
      "composite": 5665,
      "aliens": 5666,
      "combined": 5667,
      "honest": 5668,
      "ministers": 5669,
      "adesh": 5670,
      "batteries": 5671,
      "motorcycle": 5672,
      "responding": 5673,
      "frequency": 5674,
      "ratio": 5675,
      "script": 5676,
      "frog": 5677,
      "suffer": 5678,
      "philosoph": 5679,
      "narrow": 5680,
      "peanuts": 5681,
      "toddlers": 5682,
      "recognized": 5683,
      "tastes": 5684,
      "academy": 5685,
      "constitution": 5686,
      "exactly": 5687,
      "combine": 5688,
      "golfer": 5689,
      "chevrolet": 5690,
      "cadill": 5691,
      "authentic": 5692,
      "virginia": 5693,
      "concepts": 5694,
      "mushrooms": 5695,
      "rubber": 5696,
      "provinces": 5697,
      "dimensional": 5698,
      "random": 5699,
      "carbohydrates": 5700,
      "wrestling": 5701,
      "normally": 5702,
      "fahrenheit": 5703,
      "toilet": 5704,
      "choosing": 5705,
      "beijing": 5706,
      "shanghai": 5707,
      "cristiano": 5708,
      "salsa": 5709,
      "tequila": 5710,
      "diseases": 5711,
      "enterprises": 5712,
      "42": 5713,
      "86": 5714,
      "bt": 5715,
      "bou": 5716,
      "bid": 5717,
      "bills": 5718,
      "bunch": 5719,
      "cig": 5720,
      "cart": 5721,
      "een": 5722,
      "fet": 5723,
      "fers": 5724,
      "fought": 5725,
      "gand": 5726,
      "jef": 5727,
      "kers": 5728,
      "kno": 5729,
      "kite": 5730,
      "lies": 5731,
      "lunch": 5732,
      "mate": 5733,
      "mild": 5734,
      "mash": 5735,
      "nca": 5736,
      "oz": 5737,
      "pent": 5738,
      "pga": 5739,
      "rul": 5740,
      "tons": 5741,
      "uation": 5742,
      "ugg": 5743,
      "vic": 5744,
      "vign": 5745,
      "wo": 5746,
      "ying": 5747,
      "yards": 5748,
      "zed": 5749,
      "rely": 5750,
      "repet": 5751,
      "arn": 5752,
      "ardo": 5753,
      "asking": 5754,
      "itate": 5755,
      "icals": 5756,
      "edges": 5757,
      "sex": 5758,
      "seat": 5759,
      "section": 5760,
      "amin": 5761,
      "illy": 5762,
      "roses": 5763,
      "acking": 5764,
      "images": 5765,
      "etah": 5766,
      "und": 5767,
      "advis": 5768,
      "advert": 5769,
      "trout": 5770,
      "opp": 5771,
      "kee": 5772,
      "comet": 5773,
      "compost": 5774,
      "absol": 5775,
      "canadian": 5776,
      "approv": 5777,
      "apps": 5778,
      "conven": 5779,
      "withdraw": 5780,
      "soy": 5781,
      "sodi": 5782,
      "spices": 5783,
      "expo": 5784,
      "mango": 5785,
      "perhap": 5786,
      "liber": 5787,
      "ression": 5788,
      "covery": 5789,
      "grab": 5790,
      "grind": 5791,
      "pole": 5792,
      "brus": 5793,
      "emphas": 5794,
      "angles": 5795,
      "indones": 5796,
      "colleg": 5797,
      "creator": 5798,
      "marsh": 5799,
      "ghost": 5800,
      "velt": 5801,
      "bucks": 5802,
      "bucket": 5803,
      "fold": 5804,
      "anywhere": 5805,
      "mint": 5806,
      "helping": 5807,
      "cheaper": 5808,
      "cheetah": 5809,
      "ario": 5810,
      "capabilities": 5811,
      "snack": 5812,
      "lessons": 5813,
      "poll": 5814,
      "milan": 5815,
      "electron": 5816,
      "scu": 5817,
      "evening": 5818,
      "opening": 5819,
      "passwords": 5820,
      "fewer": 5821,
      "motors": 5822,
      "reality": 5823,
      "pyram": 5824,
      "learned": 5825,
      "transl": 5826,
      "transform": 5827,
      "proteins": 5828,
      "rocky": 5829,
      "franch": 5830,
      "1991": 5831,
      "1994": 5832,
      "turned": 5833,
      "fielder": 5834,
      "austria": 5835,
      "winters": 5836,
      "malays": 5837,
      "immune": 5838,
      "hundre": 5839,
      "specifically": 5840,
      "preference": 5841,
      "sites": 5842,
      "ramento": 5843,
      "platy": 5844,
      "1970": 5845,
      "collection": 5846,
      "holding": 5847,
      "representing": 5848,
      "officially": 5849,
      "purchasing": 5850,
      "toronto": 5851,
      "hawks": 5852,
      "dreams": 5853,
      "videos": 5854,
      "periods": 5855,
      "issance": 5856,
      "composition": 5857,
      "teacher": 5858,
      "spoon": 5859,
      "existence": 5860,
      "employment": 5861,
      "license": 5862,
      "labrad": 5863,
      "pandemic": 5864,
      "affection": 5865,
      "pilots": 5866,
      "picnic": 5867,
      "tuning": 5868,
      "opposing": 5869,
      "corporation": 5870,
      "respond": 5871,
      "astronom": 5872,
      "bacon": 5873,
      "sentence": 5874,
      "montana": 5875,
      "cocktail": 5876,
      "baker": 5877,
      "improving": 5878,
      "continental": 5879,
      "zoom": 5880,
      "albums": 5881,
      "reliable": 5882,
      "athletic": 5883,
      "accepted": 5884,
      "...": 5885,
      "gaming": 5886,
      "describes": 5887,
      "institutions": 5888,
      "scully": 5889,
      "shooting": 5890,
      "seems": 5891,
      "ranging": 5892,
      "dragons": 5893,
      "harvard": 5894,
      "ecosystem": 5895,
      "secret": 5896,
      "fictional": 5897,
      "waffles": 5898,
      "minerals": 5899,
      "nutrients": 5900,
      "chamber": 5901,
      "accident": 5902,
      "drilling": 5903,
      "nutrition": 5904,
      "psych": 5905,
      "sacramento": 5906,
      "conversation": 5907,
      "renaissance": 5908,
      "agriculture": 5909,
      "bacteria": 5910,
      "fossil": 5911,
      "saxophone": 5912,
      "ethiopia": 5913,
      "beyond": 5914,
      "dynasty": 5915,
      "pengu": 5916,
      "acoustic": 5917,
      "abraham": 5918,
      "margarita": 5919,
      "ncaa": 5920,
      "sodium": 5921,
      "perhaps": 5922,
      "hundreds": 5923,
      "1st": 5924,
      "47": 5925,
      "400": 5926,
      "55": 5927,
      "72": 5928,
      "bh": 5929,
      "blow": 5930,
      "bits": 5931,
      "cact": 5932,
      "cking": 5933,
      "dop": 5934,
      "dana": 5935,
      "diles": 5936,
      "fame": 5937,
      "fell": 5938,
      "flip": 5939,
      "gib": 5940,
      "gmc": 5941,
      "iot": 5942,
      "ience": 5943,
      "jr": 5944,
      "kne": 5945,
      "mol": 5946,
      "nine": 5947,
      "niger": 5948,
      "ostr": 5949,
      "pn": 5950,
      "pale": 5951,
      "sne": 5952,
      "sche": 5953,
      "sending": 5954,
      "tion": 5955,
      "tough": 5956,
      "ub": 5957,
      "wid": 5958,
      "yer": 5959,
      "zing": 5960,
      "thail": 5961,
      "infect": 5962,
      "anne": 5963,
      "rey": 5964,
      "repair": 5965,
      "atar": 5966,
      "isl": 5967,
      "ord": 5968,
      "orang": 5969,
      "orches": 5970,
      "ening": 5971,
      "alge": 5972,
      "alpine": 5973,
      "arin": 5974,
      "anderson": 5975,
      "asts": 5976,
      "tos": 5977,
      "edition": 5978,
      "stair": 5979,
      "lex": 5980,
      "leopard": 5981,
      "whales": 5982,
      "chuck": 5983,
      "amel": 5984,
      "iled": 5985,
      "rob": 5986,
      "roose": 5987,
      "beverage": 5988,
      "details": 5989,
      "decade": 5990,
      "elon": 5991,
      "oting": 5992,
      "ulate": 5993,
      "kevin": 5994,
      "shift": 5995,
      "umes": 5996,
      "wire": 5997,
      "fridge": 5998,
      "abol": 5999,
      "teas": 6000,
      "nept": 6001,
      "sox": 6002,
      "maj": 6003,
      "spent": 6004,
      "spired": 6005,
      "cocon": 6006,
      "wealth": 6007,
      "grains": 6008,
      "poons": 6009,
      "bravo": 6010,
      "brush": 6011,
      "output": 6012,
      "notable": 6013,
      "avengers": 6014,
      "endar": 6015,
      "phill": 6016,
      "ivy": 6017,
      "iving": 6018,
      "dru": 6019,
      "drama": 6020,
      "owning": 6021,
      "crust": 6022,
      "ghan": 6023,
      "willing": 6024,
      "interval": 6025,
      "renowned": 6026,
      "landing": 6027,
      "landlocked": 6028,
      "news": 6029,
      "knit": 6030,
      "calendar": 6031,
      "indiana": 6032,
      "partition": 6033,
      "warmer": 6034,
      "finland": 6035,
      "ryan": 6036,
      "discovered": 6037,
      "discovery": 6038,
      "mini": 6039,
      "provider": 6040,
      "helped": 6041,
      "producing": 6042,
      "caul": 6043,
      "insights": 6044,
      "saur": 6045,
      "sunday": 6046,
      "commission": 6047,
      "awn": 6048,
      "wrong": 6049,
      "simpl": 6050,
      "gging": 6051,
      "metrics": 6052,
      "holder": 6053,
      "ensus": 6054,
      "herb": 6055,
      "valid": 6056,
      "stuff": 6057,
      "travels": 6058,
      "universal": 6059,
      "balanced": 6060,
      "visitors": 6061,
      "bury": 6062,
      "finding": 6063,
      "keeps": 6064,
      "pants": 6065,
      "courts": 6066,
      "trains": 6067,
      "legisl": 6068,
      "cuit": 6069,
      "cucum": 6070,
      "heads": 6071,
      "nissan": 6072,
      "tourists": 6073,
      "compute": 6074,
      "northwest": 6075,
      "distill": 6076,
      "physically": 6077,
      "bowling": 6078,
      "storing": 6079,
      "watched": 6080,
      "squir": 6081,
      "horror": 6082,
      "movements": 6083,
      "fluid": 6084,
      "fluff": 6085,
      "drops": 6086,
      "falling": 6087,
      "hunting": 6088,
      "gave": 6089,
      "stronger": 6090,
      "mask": 6091,
      "bottles": 6092,
      "sauvign": 6093,
      "thoughts": 6094,
      "pressed": 6095,
      "idae": 6096,
      "holders": 6097,
      "facing": 6098,
      "fortun": 6099,
      "latest": 6100,
      "purchased": 6101,
      "shares": 6102,
      "axis": 6103,
      "securities": 6104,
      "citrus": 6105,
      "challenge": 6106,
      "zero": 6107,
      "radio": 6108,
      "vania": 6109,
      "girls": 6110,
      "prison": 6111,
      "vinyl": 6112,
      "lemonade": 6113,
      "davis": 6114,
      "influential": 6115,
      "managed": 6116,
      "cruise": 6117,
      "1945": 6118,
      "truth": 6119,
      "strategies": 6120,
      "shopping": 6121,
      "mechanism": 6122,
      "tank": 6123,
      "territor": 6124,
      "alexander": 6125,
      "regardless": 6126,
      "happened": 6127,
      "2000s": 6128,
      "passover": 6129,
      "apartment": 6130,
      "blanc": 6131,
      "nadal": 6132,
      "crown": 6133,
      "scene": 6134,
      "tamil": 6135,
      "retire": 6136,
      "academic": 6137,
      "dollars": 6138,
      "false": 6139,
      "paddle": 6140,
      "neighborhood": 6141,
      "smells": 6142,
      "weapon": 6143,
      "wyoming": 6144,
      "electro": 6145,
      "crocodiles": 6146,
      "determined": 6147,
      "brisket": 6148,
      "incredible": 6149,
      "assigned": 6150,
      "citizens": 6151,
      "cereal": 6152,
      "puppy": 6153,
      "accurate": 6154,
      "blocks": 6155,
      "adopted": 6156,
      "diagno": 6157,
      "rhino": 6158,
      "fabric": 6159,
      "rhode": 6160,
      "channel": 6161,
      "guaran": 6162,
      "rafael": 6163,
      "supplies": 6164,
      "expansion": 6165,
      "mumbai": 6166,
      "pakistan": 6167,
      "trombone": 6168,
      "cadillac": 6169,
      "cigaret": 6170,
      "labrador": 6171,
      "nigeria": 6172,
      "ostrich": 6173,
      "thailand": 6174,
      "algebra": 6175,
      "roosevelt": 6176,
      "neptune": 6177,
      "sauvignon": 6178,
      "adelph": 6179,
      "bly": 6180,
      "bound": 6181,
      "bite": 6182,
      "backs": 6183,
      "bloss": 6184,
      "cm": 6185,
      "cents": 6186,
      "cakes": 6187,
      "dw": 6188,
      "fusion": 6189,
      "gall": 6190,
      "gross": 6191,
      "hors": 6192,
      "hatt": 6193,
      "hindu": 6194,
      "iro": 6195,
      "iency": 6196,
      "jones": 6197,
      "kan": 6198,
      "kare": 6199,
      "kia": 6200,
      "lisa": 6201,
      "mia": 6202,
      "noodle": 6203,
      "pm": 6204,
      "pap": 6205,
      "pian": 6206,
      "rated": 6207,
      "rating": 6208,
      "sla": 6209,
      "tap": 6210,
      "vul": 6211,
      "wand": 6212,
      "wit": 6213,
      "wish": 6214,
      "wife": 6215,
      "yd": 6216,
      "yu": 6217,
      "thai": 6218,
      "inch": 6219,
      "inner": 6220,
      "replaced": 6221,
      "oro": 6222,
      "enrich": 6223,
      "enthus": 6224,
      "alto": 6225,
      "alum": 6226,
      "arrange": 6227,
      "topher": 6228,
      "icut": 6229,
      "stit": 6230,
      "stability": 6231,
      "chant": 6232,
      "chile": 6233,
      "chase": 6234,
      "chili": 6235,
      "rots": 6236,
      "entry": 6237,
      "forget": 6238,
      "deal": 6239,
      "alliance": 6240,
      "elly": 6241,
      "elines": 6242,
      "unity": 6243,
      "tray": 6244,
      "triple": 6245,
      "aggress": 6246,
      "frag": 6247,
      "friday": 6248,
      "contribute": 6249,
      "prop": 6250,
      "proxim": 6251,
      "cla": 6252,
      "sole": 6253,
      "uten": 6254,
      "spell": 6255,
      "excess": 6256,
      "exclus": 6257,
      "strain": 6258,
      "dile": 6259,
      "resist": 6260,
      "gey": 6261,
      "losing": 6262,
      "antarct": 6263,
      "auth": 6264,
      "heating": 6265,
      "podc": 6266,
      "poker": 6267,
      "notice": 6268,
      "compare": 6269,
      "draft": 6270,
      "monster": 6271,
      "bling": 6272,
      "owns": 6273,
      "balloon": 6274,
      "margin": 6275,
      "crim": 6276,
      "ears": 6277,
      "19th": 6278,
      "tension": 6279,
      "interaction": 6280,
      "iana": 6281,
      "folk": 6282,
      "cuss": 6283,
      "watering": 6284,
      "genome": 6285,
      "skis": 6286,
      "skip": 6287,
      "twist": 6288,
      "twice": 6289,
      "laus": 6290,
      "firms": 6291,
      "dating": 6292,
      "iba": 6293,
      "ibilities": 6294,
      "parking": 6295,
      "syll": 6296,
      "classification": 6297,
      "prepar": 6298,
      "desired": 6299,
      "themes": 6300,
      "finch": 6301,
      "larry": 6302,
      "effic": 6303,
      "shoulder": 6304,
      "persian": 6305,
      "province": 6306,
      "thrill": 6307,
      "inton": 6308,
      "instruction": 6309,
      "northeast": 6310,
      "sausage": 6311,
      "hosp": 6312,
      "evergreen": 6313,
      "fundam": 6314,
      "lightning": 6315,
      "solo": 6316,
      "harmon": 6317,
      "matches": 6318,
      "turtles": 6319,
      "everywhere": 6320,
      "setup": 6321,
      "metres": 6322,
      "metals": 6323,
      "mainly": 6324,
      "downtown": 6325,
      "underlying": 6326,
      "athy": 6327,
      "athlete": 6328,
      "garage": 6329,
      "processor": 6330,
      "bars": 6331,
      "barcel": 6332,
      "stuf": 6333,
      "supports": 6334,
      "submit": 6335,
      "justice": 6336,
      "brook": 6337,
      "archae": 6338,
      "bulb": 6339,
      "protection": 6340,
      "guitars": 6341,
      "directions": 6342,
      "fasting": 6343,
      "jud": 6344,
      "judge": 6345,
      "referee": 6346,
      "rainy": 6347,
      "qualified": 6348,
      "1990": 6349,
      "slack": 6350,
      "payments": 6351,
      "opera": 6352,
      "operate": 6353,
      "profession": 6354,
      "eaten": 6355,
      "superior": 6356,
      "malay": 6357,
      "secondary": 6358,
      "connections": 6359,
      "connecticut": 6360,
      "daniel": 6361,
      "toward": 6362,
      "advice": 6363,
      "macar": 6364,
      "philadelph": 6365,
      "consumers": 6366,
      "rotation": 6367,
      "schol": 6368,
      "satell": 6369,
      "packing": 6370,
      "properly": 6371,
      "meetings": 6372,
      "marked": 6373,
      "beginners": 6374,
      "goddess": 6375,
      "jacket": 6376,
      "messages": 6377,
      "issued": 6378,
      "homa": 6379,
      "alien": 6380,
      "tires": 6381,
      "specialized": 6382,
      "column": 6383,
      "lemons": 6384,
      "decided": 6385,
      "historically": 6386,
      "museums": 6387,
      "awarded": 6388,
      "emotional": 6389,
      "hydrated": 6390,
      "varying": 6391,
      "graduate": 6392,
      "efficiently": 6393,
      "lamb": 6394,
      "optimisation": 6395,
      "logical": 6396,
      "photosynthe": 6397,
      "initial": 6398,
      "distribution": 6399,
      "hosted": 6400,
      "phenom": 6401,
      "dumb": 6402,
      "rhyth": 6403,
      "strawberries": 6404,
      "feedback": 6405,
      "breaks": 6406,
      "injury": 6407,
      "decrease": 6408,
      "instructor": 6409,
      "violin": 6410,
      "declared": 6411,
      "apollo": 6412,
      "volcano": 6413,
      "algorithm": 6414,
      "evaluate": 6415,
      "circumference": 6416,
      "christopher": 6417,
      "bindings": 6418,
      "amphibians": 6419,
      "collins": 6420,
      "earlier": 6421,
      "slightly": 6422,
      "margaret": 6423,
      "lakers": 6424,
      "elimin": 6425,
      "detect": 6426,
      "mortgage": 6427,
      "droplets": 6428,
      "jeff": 6429,
      "approved": 6430,
      "exposure": 6431,
      "indonesia": 6432,
      "proximity": 6433,
      "antarctica": 6434,
      "barcelona": 6435,
      "philadelphia": 6436,
      "':": 6437,
      "36": 6438,
      "3rd": 6439,
      "81": 6440,
      "aar": 6441,
      "cav": 6442,
      "cows": 6443,
      "dj": 6444,
      "fid": 6445,
      "fence": 6446,
      "faces": 6447,
      "gt": 6448,
      "gpt": 6449,
      "iac": 6450,
      "iko": 6451,
      "jen": 6452,
      "jac": 6453,
      "kum": 6454,
      "lum": 6455,
      "lau": 6456,
      "loose": 6457,
      "mig": 6458,
      "mine": 6459,
      "odo": 6460,
      "pom": 6461,
      "poodle": 6462,
      "rin": 6463,
      "rider": 6464,
      "raz": 6465,
      "sar": 6466,
      "sword": 6467,
      "tz": 6468,
      "tag": 6469,
      "t20": 6470,
      "tale": 6471,
      "tune": 6472,
      "vast": 6473,
      "vatic": 6474,
      "yose": 6475,
      "thre": 6476,
      "inn": 6477,
      "incl": 6478,
      "inhib": 6479,
      "theon": 6480,
      "reve": 6481,
      "recess": 6482,
      "rell": 6483,
      "ori": 6484,
      "ene": 6485,
      "enab": 6486,
      "enna": 6487,
      "ando": 6488,
      "tol": 6489,
      "token": 6490,
      "itory": 6491,
      "icial": 6492,
      "stable": 6493,
      "stitch": 6494,
      "chill": 6495,
      "chard": 6496,
      "chry": 6497,
      "chef": 6498,
      "rope": 6499,
      "entity": 6500,
      "bec": 6501,
      "accent": 6502,
      "acron": 6503,
      "ols": 6504,
      "depart": 6505,
      "allen": 6506,
      "eless": 6507,
      "iflower": 6508,
      "igi": 6509,
      "modif": 6510,
      "ados": 6511,
      "otic": 6512,
      "verbs": 6513,
      "therap": 6514,
      "trips": 6515,
      "ulum": 6516,
      "keto": 6517,
      "keley": 6518,
      "commod": 6519,
      "ests": 6520,
      "shaw": 6521,
      "confl": 6522,
      "lyft": 6523,
      "maz": 6524,
      "spaces": 6525,
      "exists": 6526,
      "exposed": 6527,
      "quit": 6528,
      "div": 6529,
      "coa": 6530,
      "wee": 6531,
      "loop": 6532,
      "grat": 6533,
      "grant": 6534,
      "grams": 6535,
      "heard": 6536,
      "pocket": 6537,
      "mention": 6538,
      "avalan": 6539,
      "izers": 6540,
      "carib": 6541,
      "carrots": 6542,
      "monop": 6543,
      "mario": 6544,
      "berkeley": 6545,
      "velength": 6546,
      "ickets": 6547,
      "buick": 6548,
      "interactive": 6549,
      "cluster": 6550,
      "populations": 6551,
      "noir": 6552,
      "knight": 6553,
      "pleas": 6554,
      "differently": 6555,
      "corps": 6556,
      "curric": 6557,
      "viser": 6558,
      "disc": 6559,
      "eleven": 6560,
      "charged": 6561,
      "musk": 6562,
      "insul": 6563,
      "jeep": 6564,
      "sailing": 6565,
      "household": 6566,
      "capable": 6567,
      "invas": 6568,
      "pud": 6569,
      "puts": 6570,
      "ships": 6571,
      "easiest": 6572,
      "matrix": 6573,
      "steve": 6574,
      "settle": 6575,
      "healthier": 6576,
      "swiss": 6577,
      "iox": 6578,
      "ensions": 6579,
      "herit": 6580,
      "sels": 6581,
      "greenhouse": 6582,
      "starring": 6583,
      "electrical": 6584,
      "scooter": 6585,
      "summar": 6586,
      "expert": 6587,
      "justin": 6588,
      "leaders": 6589,
      "musicians": 6590,
      "courses": 6591,
      "passes": 6592,
      "cuts": 6593,
      "experienced": 6594,
      "virus": 6595,
      "dependent": 6596,
      "qualities": 6597,
      "186": 6598,
      "1996": 6599,
      "sheet": 6600,
      "turns": 6601,
      "slice": 6602,
      "patrick": 6603,
      "fields": 6604,
      "beneficial": 6605,
      "cutter": 6606,
      "signs": 6607,
      "signal": 6608,
      "organic": 6609,
      "zebra": 6610,
      "instance": 6611,
      "practices": 6612,
      "1989": 6613,
      "15th": 6614,
      "brandon": 6615,
      "designated": 6616,
      "containers": 6617,
      "tues": 6618,
      "argum": 6619,
      "preferred": 6620,
      "personality": 6621,
      "magn": 6622,
      "circuit": 6623,
      "rush": 6624,
      "browser": 6625,
      "availability": 6626,
      "romance": 6627,
      "bedroom": 6628,
      "digest": 6629,
      "lebrities": 6630,
      "structures": 6631,
      "wavelength": 6632,
      "invention": 6633,
      "smoke": 6634,
      "properties": 6635,
      "oxford": 6636,
      "fatty": 6637,
      "facial": 6638,
      "crops": 6639,
      "yeast": 6640,
      "godfather": 6641,
      "ginger": 6642,
      "himal": 6643,
      "receiver": 6644,
      "younger": 6645,
      "promote": 6646,
      "copy": 6647,
      "sequencing": 6648,
      "filling": 6649,
      "butterfly": 6650,
      "bollywood": 6651,
      "saving": 6652,
      "castle": 6653,
      "warehouse": 6654,
      "educational": 6655,
      "sharing": 6656,
      "resource": 6657,
      "bags": 6658,
      "pythag": 6659,
      "fingers": 6660,
      "bells": 6661,
      "ields": 6662,
      "graphical": 6663,
      "furthermore": 6664,
      "acidic": 6665,
      "approaches": 6666,
      "doubt": 6667,
      "bbq": 6668,
      "scores": 6669,
      "throwing": 6670,
      "selected": 6671,
      "placing": 6672,
      "mund": 6673,
      "contrary": 6674,
      "dimensions": 6675,
      "nominations": 6676,
      "bathroom": 6677,
      "routes": 6678,
      "respective": 6679,
      "journal": 6680,
      "situation": 6681,
      "situations": 6682,
      "breathing": 6683,
      "decreasing": 6684,
      "linked": 6685,
      "sculpt": 6686,
      "alligators": 6687,
      "surrounding": 6688,
      "exploration": 6689,
      "kayak": 6690,
      "brothers": 6691,
      "bengal": 6692,
      "aspects": 6693,
      "agreement": 6694,
      "bubble": 6695,
      "weapons": 6696,
      "deposits": 6697,
      "rapidly": 6698,
      "algorithms": 6699,
      "jumping": 6700,
      "roasted": 6701,
      "numerous": 6702,
      "datasets": 6703,
      "vinegar": 6704,
      "pretty": 6705,
      "queries": 6706,
      "treasury": 6707,
      "migration": 6708,
      "sopran": 6709,
      "trend": 6710,
      "kilometers": 6711,
      "racket": 6712,
      "daughter": 6713,
      "indigo": 6714,
      "crafts": 6715,
      "harrison": 6716,
      "tigers": 6717,
      "shadow": 6718,
      "sylvania": 6719,
      "pennsylvania": 6720,
      "lentils": 6721,
      "monetary": 6722,
      "furniture": 6723,
      "franchise": 6724,
      "malaysia": 6725,
      "gibson": 6726,
      "coconut": 6727,
      "bravolebrities": 6728,
      "cauliflower": 6729,
      "cucumber": 6730,
      "fluffy": 6731,
      "cigarette": 6732,
      "blossom": 6733,
      "horses": 6734,
      "kareem": 6735,
      "stuffed": 6736,
      "vatican": 6737,
      "yosemite": 6738,
      "caribbean": 6739,
      "4th": 6740,
      "bones": 6741,
      "dick": 6742,
      "eon": 6743,
      "fai": 6744,
      "gil": 6745,
      "gap": 6746,
      "gith": 6747,
      "hbo": 6748,
      "hend": 6749,
      "ires": 6750,
      "ients": 6751,
      "jal": 6752,
      "jit": 6753,
      "jur": 6754,
      "jenn": 6755,
      "jaguar": 6756,
      "jelly": 6757,
      "kines": 6758,
      "kyle": 6759,
      "khal": 6760,
      "kolk": 6761,
      "lis": 6762,
      "liga": 6763,
      "mist": 6764,
      "oct": 6765,
      "pong": 6766,
      "pounds": 6767,
      "qin": 6768,
      "rr": 6769,
      "rors": 6770,
      "rib": 6771,
      "sfo": 6772,
      "sick": 6773,
      "slang": 6774,
      "sitar": 6775,
      "tet": 6776,
      "tone": 6777,
      "vant": 6778,
      "yield": 6779,
      "zur": 6780,
      "zoo": 6781,
      "zach": 6782,
      "inspired": 6783,
      "ania": 6784,
      "eron": 6785,
      "theme": 6786,
      "reh": 6787,
      "recreation": 6788,
      "atu": 6789,
      "isy": 6790,
      "oracle": 6791,
      "eness": 6792,
      "alpac": 6793,
      "assem": 6794,
      "toes": 6795,
      "oft": 6796,
      "itz": 6797,
      "itious": 6798,
      "icon": 6799,
      "stad": 6800,
      "steven": 6801,
      "stances": 6802,
      "sticks": 6803,
      "leban": 6804,
      "lewis": 6805,
      "whit": 6806,
      "whist": 6807,
      "ombia": 6808,
      "semi": 6809,
      "roles": 6810,
      "roots": 6811,
      "beta": 6812,
      "deals": 6813,
      "ifier": 6814,
      "igation": 6815,
      "moth": 6816,
      "plates": 6817,
      "oted": 6818,
      "trap": 6819,
      "kept": 6820,
      "shah": 6821,
      "shake": 6822,
      "shiba": 6823,
      "umbre": 6824,
      "apo": 6825,
      "appoint": 6826,
      "config": 6827,
      "neil": 6828,
      "nevada": 6829,
      "cliff": 6830,
      "utility": 6831,
      "spac": 6832,
      "extr": 6833,
      "manip": 6834,
      "manhatt": 6835,
      "illino": 6836,
      "quad": 6837,
      "quart": 6838,
      "ressing": 6839,
      "cos": 6840,
      "coaster": 6841,
      "cogn": 6842,
      "coordin": 6843,
      "weir": 6844,
      "boom": 6845,
      "gras": 6846,
      "grizz": 6847,
      "automat": 6848,
      "assume": 6849,
      "bru": 6850,
      "brick": 6851,
      "brings": 6852,
      "outcomes": 6853,
      "astro": 6854,
      "mentally": 6855,
      "goa": 6856,
      "endurance": 6857,
      "ivals": 6858,
      "dried": 6859,
      "drives": 6860,
      "icep": 6861,
      "carto": 6862,
      "otherwise": 6863,
      "monday": 6864,
      "blues": 6865,
      "colombia": 6866,
      "criter": 6867,
      "earned": 6868,
      "duke": 6869,
      "formats": 6870,
      "inters": 6871,
      "noble": 6872,
      "identified": 6873,
      "joker": 6874,
      "newsp": 6875,
      "engage": 6876,
      "twenty": 6877,
      "lahoma": 6878,
      "calvin": 6879,
      "parrot": 6880,
      "paralle": 6881,
      "syrup": 6882,
      "airline": 6883,
      "aircraft": 6884,
      "americas": 6885,
      "planned": 6886,
      "warts": 6887,
      "finished": 6888,
      "display": 6889,
      "discrete": 6890,
      "brewer": 6891,
      "workers": 6892,
      "guard": 6893,
      "runners": 6894,
      "ifications": 6895,
      "telling": 6896,
      "pton": 6897,
      "everest": 6898,
      "raj": 6899,
      "rael": 6900,
      "thens": 6901,
      "donald": 6902,
      "fung": 6903,
      "calls": 6904,
      "solutions": 6905,
      "simmer": 6906,
      "potentially": 6907,
      "ictions": 6908,
      "lessness": 6909,
      "obtain": 6910,
      "daener": 6911,
      "handed": 6912,
      "sporting": 6913,
      "valu": 6914,
      "fiber": 6915,
      "milest": 6916,
      "lotte": 6917,
      "appliances": 6918,
      "experiment": 6919,
      "carefully": 6920,
      "burgh": 6921,
      "pancakes": 6922,
      "skiers": 6923,
      "southwest": 6924,
      "transformation": 6925,
      "risks": 6926,
      "180": 6927,
      "sheets": 6928,
      "shepher": 6929,
      "gorilla": 6930,
      "millenn": 6931,
      "1987": 6932,
      "companion": 6933,
      "superman": 6934,
      "equator": 6935,
      "traded": 6936,
      "goldfish": 6937,
      "possess": 6938,
      "monthly": 6939,
      "boxes": 6940,
      "covering": 6941,
      "laying": 6942,
      "compete": 6943,
      "focused": 6944,
      "climb": 6945,
      "climates": 6946,
      "russell": 6947,
      "rank": 6948,
      "accounting": 6949,
      "changed": 6950,
      "says": 6951,
      "measured": 6952,
      "facil": 6953,
      "towns": 6954,
      "tornad": 6955,
      "certainly": 6956,
      "heavily": 6957,
      "bringing": 6958,
      "camera": 6959,
      "jackets": 6960,
      "float": 6961,
      "floyd": 6962,
      "himself": 6963,
      "sweat": 6964,
      "couch": 6965,
      "issions": 6966,
      "industries": 6967,
      "asked": 6968,
      "chrome": 6969,
      "teaching": 6970,
      "sharks": 6971,
      "pike": 6972,
      "glasses": 6973,
      "politan": 6974,
      "armstrong": 6975,
      "maintaining": 6976,
      "deciding": 6977,
      "scientist": 6978,
      "graphics": 6979,
      "mapreduce": 6980,
      "pools": 6981,
      "sister": 6982,
      "treatment": 6983,
      "frequent": 6984,
      "oklahoma": 6985,
      "lamar": 6986,
      "cocktails": 6987,
      "sushi": 6988,
      "improved": 6989,
      "aegon": 6990,
      "holidays": 6991,
      "scotland": 6992,
      "philosopher": 6993,
      "nomad": 6994,
      "nickname": 6995,
      "entirely": 6996,
      "taco": 6997,
      "alexa": 6998,
      "village": 6999,
      "brainstorm": 7000,
      "probability": 7001,
      "eagles": 7002,
      "romeo": 7003,
      "reptile": 7004,
      "situated": 7005,
      "dessert": 7006,
      "desserts": 7007,
      "arabian": 7008,
      "jimmy": 7009,
      "kilo": 7010,
      "isaac": 7011,
      "franklin": 7012,
      "tasty": 7013,
      "chairs": 7014,
      "concern": 7015,
      "integration": 7016,
      "implementation": 7017,
      "repeat": 7018,
      "harvest": 7019,
      "rosse": 7020,
      "crocodile": 7021,
      "chopped": 7022,
      "register": 7023,
      "dataset": 7024,
      "anthony": 7025,
      "diversity": 7026,
      "skateboard": 7027,
      "gulf": 7028,
      "secure": 7029,
      "moisture": 7030,
      "philipp": 7031,
      "attributes": 7032,
      "genomics": 7033,
      "jabbar": 7034,
      "buffalo": 7035,
      "lacrosse": 7036,
      "theorem": 7037,
      "altitude": 7038,
      "hogwarts": 7039,
      "dinosaurs": 7040,
      "mystery": 7041,
      "rasp": 7042,
      "wool": 7043,
      "opponents": 7044,
      "pyramid": 7045,
      "sneak": 7046,
      "drugs": 7047,
      "territories": 7048,
      "alumin": 7049,
      "efficiency": 7050,
      "fundamental": 7051,
      "macaroni": 7052,
      "photosynthesis": 7053,
      "acronym": 7054,
      "curriculum": 7055,
      "pudding": 7056,
      "github": 7057,
      "kinesis": 7058,
      "manhattan": 7059,
      "illinois": 7060,
      "cognitive": 7061,
      "criteria": 7062,
      "daenerys": 7063,
      ",'": 7064,
      "//": 7065,
      "1k": 7066,
      "120": 7067,
      "57": 7068,
      "://": 7069,
      "ais": 7070,
      "avel": 7071,
      "bum": 7072,
      "bau": 7073,
      "bible": 7074,
      "cim": 7075,
      "cass": 7076,
      "dil": 7077,
      "ey": 7078,
      "fon": 7079,
      "fib": 7080,
      "fighter": 7081,
      "foul": 7082,
      "gel": 7083,
      "gif": 7084,
      "gio": 7085,
      "hr": 7086,
      "hell": 7087,
      "hance": 7088,
      "hire": 7089,
      "hamp": 7090,
      "iow": 7091,
      "kat": 7092,
      "kend": 7093,
      "kary": 7094,
      "lid": 7095,
      "mam": 7096,
      "nan": 7097,
      "nay": 7098,
      "nest": 7099,
      "nish": 7100,
      "og": 7101,
      "obl": 7102,
      "pix": 7103,
      "rv": 7104,
      "rit": 7105,
      "rum": 7106,
      "rha": 7107,
      "sons": 7108,
      "tong": 7109,
      "tage": 7110,
      "tie": 7111,
      "tication": 7112,
      "tickets": 7113,
      "ud": 7114,
      "ui": 7115,
      "uum": 7116,
      "vy": 7117,
      "vend": 7118,
      "vice": 7119,
      "wau": 7120,
      "wants": 7121,
      "witch": 7122,
      "xbox": 7123,
      "zu": 7124,
      "thy": 7125,
      "infin": 7126,
      "incorpor": 7127,
      "inspir": 7128,
      "anus": 7129,
      "rear": 7130,
      "reward": 7131,
      "refresh": 7132,
      "isms": 7133,
      "org": 7134,
      "oras": 7135,
      "orous": 7136,
      "escape": 7137,
      "endo": 7138,
      "enforce": 7139,
      "enhance": 7140,
      "arthur": 7141,
      "anders": 7142,
      "asters": 7143,
      "itals": 7144,
      "stages": 7145,
      "chest": 7146,
      "chart": 7147,
      "seal": 7148,
      "seats": 7149,
      "semic": 7150,
      "secut": 7151,
      "amed": 7152,
      "ilo": 7153,
      "roth": 7154,
      "rovers": 7155,
      "aco": 7156,
      "deck": 7157,
      "detail": 7158,
      "declar": 7159,
      "usd": 7160,
      "imet": 7161,
      "ifies": 7162,
      "unknown": 7163,
      "unix": 7164,
      "unless": 7165,
      "unders": 7166,
      "modi": 7167,
      "adi": 7168,
      "adverb": 7169,
      "idi": 7170,
      "trump": 7171,
      "kelet": 7172,
      "peer": 7173,
      "shir": 7174,
      "aber": 7175,
      "convent": 7176,
      "congress": 7177,
      "dock": 7178,
      "dozen": 7179,
      "ichord": 7180,
      "nepal": 7181,
      "clip": 7182,
      "utional": 7183,
      "sparrow": 7184,
      "expression": 7185,
      "supre": 7186,
      "haired": 7187,
      "strip": 7188,
      "likes": 7189,
      "lived": 7190,
      "lizard": 7191,
      "reson": 7192,
      "essentially": 7193,
      "weed": 7194,
      "boot": 7195,
      "antiox": 7196,
      "grace": 7197,
      "grounds": 7198,
      "hebrew": 7199,
      "brun": 7200,
      "fees": 7201,
      "inea": 7202,
      "aston": 7203,
      "20th": 7204,
      "phd": 7205,
      "compass": 7206,
      "compound": 7207,
      "emu": 7208,
      "emily": 7209,
      "emissions": 7210,
      "carter": 7211,
      "carbs": 7212,
      "wayne": 7213,
      "blend": 7214,
      "berra": 7215,
      "cran": 7216,
      "craw": 7217,
      "crunch": 7218,
      "crime": 7219,
      "flash": 7220,
      "duvet": 7221,
      "forming": 7222,
      "internal": 7223,
      "serious": 7224,
      "afghan": 7225,
      "conscious": 7226,
      "genes": 7227,
      "identity": 7228,
      "portfol": 7229,
      "parad": 7230,
      "parquet": 7231,
      "evapor": 7232,
      "corresponding": 7233,
      "preser": 7234,
      "curved": 7235,
      "yearly": 7236,
      "osis": 7237,
      "effort": 7238,
      "brewing": 7239,
      "shoulders": 7240,
      "minton": 7241,
      "gerald": 7242,
      "cattle": 7243,
      "charlotte": 7244,
      "intel": 7245,
      "guinea": 7246,
      "causing": 7247,
      "hump": 7248,
      "nordic": 7249,
      "animated": 7250,
      "cheer": 7251,
      "capt": 7252,
      "capture": 7253,
      "regulations": 7254,
      "rah": 7255,
      "snacks": 7256,
      "funny": 7257,
      "forever": 7258,
      "harm": 7259,
      "soul": 7260,
      "stew": 7261,
      "singh": 7262,
      "meter": 7263,
      "hollow": 7264,
      "obvious": 7265,
      "observe": 7266,
      "windy": 7267,
      "showing": 7268,
      "tony": 7269,
      "barry": 7270,
      "ammable": 7271,
      "milwau": 7272,
      "occo": 7273,
      "summers": 7274,
      "optical": 7275,
      "temple": 7276,
      "leads": 7277,
      "2009": 7278,
      "tino": 7279,
      "domain": 7280,
      "technically": 7281,
      "bulls": 7282,
      "cubs": 7283,
      "transmission": 7284,
      "hotel": 7285,
      "headphones": 7286,
      "referring": 7287,
      "publicly": 7288,
      "slam": 7289,
      "modeling": 7290,
      "socks": 7291,
      "volley": 7292,
      "rica": 7293,
      "venture": 7294,
      "gluten": 7295,
      "organized": 7296,
      "objectives": 7297,
      "zee": 7298,
      "hub": 7299,
      "1982": 7300,
      "approx": 7301,
      "trading": 7302,
      "businesses": 7303,
      "recording": 7304,
      "landscape": 7305,
      "hungry": 7306,
      "litres": 7307,
      "painted": 7308,
      "kobe": 7309,
      "tuba": 7310,
      "sandals": 7311,
      "strongest": 7312,
      "mascot": 7313,
      "bott": 7314,
      "focusing": 7315,
      "sitcom": 7316,
      "morocco": 7317,
      "ranked": 7318,
      "ologists": 7319,
      "taxi": 7320,
      "apex": 7321,
      "avored": 7322,
      "consumed": 7323,
      "massive": 7324,
      "vacuum": 7325,
      "measures": 7326,
      "scalable": 7327,
      "1970s": 7328,
      "ukrain": 7329,
      "cello": 7330,
      "casual": 7331,
      "oxid": 7332,
      "badminton": 7333,
      "globe": 7334,
      "testing": 7335,
      "appeal": 7336,
      "appeared": 7337,
      "latter": 7338,
      "cambridge": 7339,
      "1960": 7340,
      "promotes": 7341,
      "usefulness": 7342,
      "resulting": 7343,
      "screens": 7344,
      "nesday": 7345,
      "columns": 7346,
      "federer": 7347,
      "celebrities": 7348,
      "motorized": 7349,
      "sprink": 7350,
      "studying": 7351,
      "martini": 7352,
      "romanian": 7353,
      "pipelines": 7354,
      "separation": 7355,
      "separated": 7356,
      "1957": 7357,
      "touchdown": 7358,
      "photography": 7359,
      "bourg": 7360,
      "bourbon": 7361,
      "minimal": 7362,
      "conditioning": 7363,
      "missions": 7364,
      "nicklaus": 7365,
      "tablespoon": 7366,
      "claims": 7367,
      "monitoring": 7368,
      "smartphone": 7369,
      "revenge": 7370,
      "oakland": 7371,
      "fighting": 7372,
      "1939": 7373,
      "wedding": 7374,
      "wednesday": 7375,
      "catching": 7376,
      "thompson": 7377,
      "bobby": 7378,
      "sandwiches": 7379,
      "mulder": 7380,
      "dolphins": 7381,
      "injuries": 7382,
      "reporting": 7383,
      "chihu": 7384,
      "html": 7385,
      "atomic": 7386,
      "adapted": 7387,
      "launched": 7388,
      "surrounded": 7389,
      "punish": 7390,
      "legos": 7391,
      "colored": 7392,
      "pitts": 7393,
      "dominant": 7394,
      "luxury": 7395,
      "imagination": 7396,
      "colours": 7397,
      "gathering": 7398,
      "authentication": 7399,
      "wonderful": 7400,
      "gentle": 7401,
      "pronounced": 7402,
      "circumstances": 7403,
      "churchill": 7404,
      "stratus": 7405,
      "vitamin": 7406,
      "estimated": 7407,
      "michelle": 7408,
      "candidate": 7409,
      "geometry": 7410,
      "settings": 7411,
      "trigger": 7412,
      "princess": 7413,
      "diamond": 7414,
      "assuming": 7415,
      "playoffs": 7416,
      "temporary": 7417,
      "carnivores": 7418,
      "discipline": 7419,
      "horizon": 7420,
      "penguin": 7421,
      "saurus": 7422,
      "fortunately": 7423,
      "stitches": 7424,
      "aggressive": 7425,
      "professionals": 7426,
      "rhythm": 7427,
      "mazda": 7428,
      "monopoly": 7429,
      "heritage": 7430,
      "tuesday": 7431,
      "stadium": 7432,
      "lebanon": 7433,
      "parallel": 7434,
      "iowa": 7435,
      "supreme": 7436,
      "antioxid": 7437,
      "afghanistan": 7438,
      "milwaukee": 7439,
      "\")": 7440,
      "1000": 7441,
      "41": 7442,
      "44": 7443,
      "5th": 7444,
      "85": 7445,
      "98": 7446,
      "aign": 7447,
      "ahead": 7448,
      "bare": 7449,
      "bie": 7450,
      "dive": 7451,
      "dart": 7452,
      "dred": 7453,
      "dune": 7454,
      "diction": 7455,
      "fis": 7456,
      "fas": 7457,
      "foo": 7458,
      "fellow": 7459,
      "fdic": 7460,
      "gd": 7461,
      "hid": 7462,
      "hate": 7463,
      "hound": 7464,
      "hitch": 7465,
      "ipl": 7466,
      "iant": 7467,
      "iyan": 7468,
      "js": 7469,
      "jed": 7470,
      "jets": 7471,
      "kent": 7472,
      "kard": 7473,
      "kish": 7474,
      "lt": 7475,
      "lil": 7476,
      "lists": 7477,
      "mt": 7478,
      "morgan": 7479,
      "nin": 7480,
      "nado": 7481,
      "oat": 7482,
      "oid": 7483,
      "ody": 7484,
      "oboe": 7485,
      "rio": 7486,
      "rival": 7487,
      "sas": 7488,
      "sach": 7489,
      "sight": 7490,
      "swords": 7491,
      "slower": 7492,
      "sizes": 7493,
      "tum": 7494,
      "tut": 7495,
      "tort": 7496,
      "uter": 7497,
      "uous": 7498,
      "vital": 7499,
      "voc": 7500,
      "wim": 7501,
      "wagen": 7502,
      "yam": 7503,
      "zion": 7504,
      "zam": 7505,
      "zep": 7506,
      "zards": 7507,
      "án": 7508,
      "inexpensive": 7509,
      "indoors": 7510,
      "inhabit": 7511,
      "ani": 7512,
      "anna": 7513,
      "anchor": 7514,
      "eras": 7515,
      "repl": 7516,
      "remind": 7517,
      "reverse": 7518,
      "onent": 7519,
      "ondu": 7520,
      "atari": 7521,
      "isen": 7522,
      "israel": 7523,
      "eses": 7524,
      "esar": 7525,
      "almond": 7526,
      "argu": 7527,
      "ingu": 7528,
      "aspen": 7529,
      "tood": 7530,
      "icies": 7531,
      "stim": 7532,
      "staf": 7533,
      "stev": 7534,
      "chu": 7535,
      "amen": 7536,
      "olith": 7537,
      "fork": 7538,
      "forts": 7539,
      "forced": 7540,
      "eland": 7541,
      "usual": 7542,
      "impl": 7543,
      "imba": 7544,
      "unk": 7545,
      "unic": 7546,
      "unda": 7547,
      "igning": 7548,
      "admit": 7549,
      "plans": 7550,
      "vermouth": 7551,
      "iran": 7552,
      "irons": 7553,
      "tria": 7554,
      "whatever": 7555,
      "oph": 7556,
      "uranus": 7557,
      "ulu": 7558,
      "uly": 7559,
      "ulated": 7560,
      "keeper": 7561,
      "peach": 7562,
      "sha": 7563,
      "shr": 7564,
      "shred": 7565,
      "shorts": 7566,
      "shields": 7567,
      "wizard": 7568,
      "abstr": 7569,
      "canberra": 7570,
      "concentr": 7571,
      "concrete": 7572,
      "doom": 7573,
      "doge": 7574,
      "nebr": 7575,
      "clap": 7576,
      "clut": 7577,
      "meets": 7578,
      "meats": 7579,
      "mahal": 7580,
      "spru": 7581,
      "extend": 7582,
      "extens": 7583,
      "sures": 7584,
      "suits": 7585,
      "manual": 7586,
      "quote": 7587,
      "quotes": 7588,
      "stri": 7589,
      "strugg": 7590,
      "perman": 7591,
      "permit": 7592,
      "atee": 7593,
      "resur": 7594,
      "coon": 7595,
      "weas": 7596,
      "ferry": 7597,
      "antarctic": 7598,
      "gravel": 7599,
      "assass": 7600,
      "bram": 7601,
      "fection": 7602,
      "inem": 7603,
      "ippi": 7604,
      "aven": 7605,
      "avour": 7606,
      "endorph": 7607,
      "compact": 7608,
      "compens": 7609,
      "compiled": 7610,
      "component": 7611,
      "timore": 7612,
      "elling": 7613,
      "drs": 7614,
      "drought": 7615,
      "drug": 7616,
      "eminem": 7617,
      "carp": 7618,
      "caramel": 7619,
      "blade": 7620,
      "inder": 7621,
      "upward": 7622,
      "tyler": 7623,
      "creatures": 7624,
      "ghana": 7625,
      "buck": 7626,
      "flammable": 7627,
      "intermed": 7628,
      "aki": 7629,
      "popcorn": 7630,
      "consoles": 7631,
      "followers": 7632,
      "enger": 7633,
      "plements": 7634,
      "parag": 7635,
      "preci": 7636,
      "rows": 7637,
      "lett": 7638,
      "finals": 7639,
      "rye": 7640,
      "discuss": 7641,
      "worked": 7642,
      "workload": 7643,
      "merchant": 7644,
      "addy": 7645,
      "greatly": 7646,
      "guay": 7647,
      "cath": 7648,
      "cathe": 7649,
      "cafe": 7650,
      "caesar": 7651,
      "pension": 7652,
      "contest": 7653,
      "controll": 7654,
      "animate": 7655,
      "cheap": 7656,
      "hoe": 7657,
      "hobby": 7658,
      "fisher": 7659,
      "snook": 7660,
      "sale": 7661,
      "sunset": 7662,
      "lighting": 7663,
      "harps": 7664,
      "mature": 7665,
      "matters": 7666,
      "steep": 7667,
      "tread": 7668,
      "gged": 7669,
      "singing": 7670,
      "backcountry": 7671,
      "netic": 7672,
      "faction": 7673,
      "observ": 7674,
      "observed": 7675,
      "reader": 7676,
      "variation": 7677,
      "variables": 7678,
      "mug": 7679,
      "importance": 7680,
      "valen": 7681,
      "garfield": 7682,
      "garcia": 7683,
      "garbage": 7684,
      "police": 7685,
      "policies": 7686,
      "barrier": 7687,
      "borgh": 7688,
      "sanit": 7689,
      "seeing": 7690,
      "scener": 7691,
      "summary": 7692,
      "developers": 7693,
      "experts": 7694,
      "euph": 7695,
      "walker": 7696,
      "careful": 7697,
      "baltimore": 7698,
      "currencies": 7699,
      "enjoying": 7700,
      "enjoyed": 7701,
      "profile": 7702,
      "cube": 7703,
      "cured": 7704,
      "guitarist": 7705,
      "nister": 7706,
      "putter": 7707,
      "juvent": 7708,
      "rising": 7709,
      "seasonal": 7710,
      "qualify": 7711,
      "feels": 7712,
      "costa": 7713,
      "costly": 7714,
      "gordon": 7715,
      "patient": 7716,
      "exercising": 7717,
      "lakehouse": 7718,
      "viewer": 7719,
      "1981": 7720,
      "1983": 7721,
      "1985": 7722,
      "cloth": 7723,
      "equals": 7724,
      "planted": 7725,
      "freezing": 7726,
      "releases": 7727,
      "hunger": 7728,
      "hundred": 7729,
      "rolls": 7730,
      "supported": 7731,
      "masala": 7732,
      "hamburger": 7733,
      "mindful": 7734,
      "presidential": 7735,
      "magaz": 7736,
      "sitting": 7737,
      "belize": 7738,
      "mixing": 7739,
      "similarities": 7740,
      "kernel": 7741,
      "moderate": 7742,
      "denmark": 7743,
      "aperture": 7744,
      "hitler": 7745,
      "goalie": 7746,
      "palm": 7747,
      "entering": 7748,
      "mandarin": 7749,
      "1977": 7750,
      "1979": 7751,
      "afraid": 7752,
      "clearly": 7753,
      "governments": 7754,
      "brazilian": 7755,
      "tender": 7756,
      "idaho": 7757,
      "weekly": 7758,
      "futures": 7759,
      "gloves": 7760,
      "categorized": 7761,
      "tornado": 7762,
      "hawk": 7763,
      "sample": 7764,
      "axe": 7765,
      "ontario": 7766,
      "promin": 7767,
      "promise": 7768,
      "couver": 7769,
      "issippi": 7770,
      "bolivia": 7771,
      "combining": 7772,
      "geography": 7773,
      "bicycles": 7774,
      "vancouver": 7775,
      "honor": 7776,
      "screw": 7777,
      "peppers": 7778,
      "centralized": 7779,
      "stopping": 7780,
      "agonist": 7781,
      "giraffe": 7782,
      "protects": 7783,
      "columbus": 7784,
      "effectively": 7785,
      "vocal": 7786,
      "touches": 7787,
      "hurt": 7788,
      "sprouts": 7789,
      "execute": 7790,
      "sentences": 7791,
      "sentiment": 7792,
      "calculated": 7793,
      "analyst": 7794,
      "shops": 7795,
      "gradually": 7796,
      "killed": 7797,
      "moments": 7798,
      "optimized": 7799,
      "scram": 7800,
      "religions": 7801,
      "bunny": 7802,
      "databases": 7803,
      "photos": 7804,
      "contracts": 7805,
      "coaches": 7806,
      "scorer": 7807,
      "initi": 7808,
      "bourne": 7809,
      "missed": 7810,
      "mississippi": 7811,
      "continued": 7812,
      "villages": 7813,
      "acceptable": 7814,
      "paste": 7815,
      "laser": 7816,
      "failure": 7817,
      "rhyming": 7818,
      "strokes": 7819,
      "behaviour": 7820,
      "housing": 7821,
      "pictures": 7822,
      "mulch": 7823,
      "documents": 7824,
      "thicker": 7825,
      "mathematic": 7826,
      "printing": 7827,
      "smoothie": 7828,
      "accomplished": 7829,
      "molecular": 7830,
      "evolved": 7831,
      "dunkin": 7832,
      "immediate": 7833,
      "diameter": 7834,
      "assistant": 7835,
      "constantly": 7836,
      "besides": 7837,
      "raven": 7838,
      "repeated": 7839,
      "chronic": 7840,
      "shelter": 7841,
      "ragdoll": 7842,
      "vaj": 7843,
      "automation": 7844,
      "jewish": 7845,
      "attractions": 7846,
      "absorb": 7847,
      "crackers": 7848,
      "scattered": 7849,
      "chopra": 7850,
      "deployment": 7851,
      "reserve": 7852,
      "passionate": 7853,
      "citizen": 7854,
      "satisf": 7855,
      "amphibian": 7856,
      "attempt": 7857,
      "converted": 7858,
      "metropolitan": 7859,
      "titanic": 7860,
      "bloom": 7861,
      "whiskey": 7862,
      "affordable": 7863,
      "candidates": 7864,
      "poisonous": 7865,
      "humidity": 7866,
      "isolation": 7867,
      "shutter": 7868,
      "procedure": 7869,
      "perceive": 7870,
      "aeros": 7871,
      "innovation": 7872,
      "https": 7873,
      "session": 7874,
      "loyal": 7875,
      "joseph": 7876,
      "cacao": 7877,
      "studio": 7878,
      "suffering": 7879,
      "philosophers": 7880,
      "knock": 7881,
      "mashed": 7882,
      "repetition": 7883,
      "convenient": 7884,
      "colleges": 7885,
      "dopamine": 7886,
      "stairs": 7887,
      "legislative": 7888,
      "retirement": 7889,
      "enriched": 7890,
      "satellite": 7891,
      "phenomenon": 7892,
      "conflict": 7893,
      "faith": 7894,
      "hendrix": 7895,
      "zurich": 7896,
      "spacex": 7897,
      "hampshire": 7898,
      "semicondu": 7899,
      "understood": 7900,
      "brunette": 7901,
      "portfolio": 7902,
      "volleyball": 7903,
      "antioxidants": 7904,
      "hidden": 7905,
      "jedi": 7906,
      "kardash": 7907,
      "inhabitants": 7908,
      "olithic": 7909,
      "triathlon": 7910,
      "nebraska": 7911,
      "spruce": 7912,
      "harpsichord": 7913,
      "juventus": 7914,
      "83": 7915,
      "aa": 7916,
      "ault": 7917,
      "athens": 7918,
      "bis": 7919,
      "bally": 7920,
      "bend": 7921,
      "bors": 7922,
      "bought": 7923,
      "blog": 7924,
      "cine": 7925,
      "cater": 7926,
      "cous": 7927,
      "cdc": 7928,
      "dense": 7929,
      "ecs": 7930,
      "fs": 7931,
      "fts": 7932,
      "fender": 7933,
      "gag": 7934,
      "gne": 7935,
      "gie": 7936,
      "hay": 7937,
      "hoo": 7938,
      "hong": 7939,
      "hack": 7940,
      "ien": 7941,
      "iers": 7942,
      "kic": 7943,
      "kab": 7944,
      "knot": 7945,
      "kiss": 7946,
      "kdramas": 7947,
      "lily": 7948,
      "mow": 7949,
      "mall": 7950,
      "naz": 7951,
      "nft": 7952,
      "naren": 7953,
      "nike": 7954,
      "ninten": 7955,
      "oval": 7956,
      "pies": 7957,
      "pist": 7958,
      "pier": 7959,
      "rational": 7960,
      "rams": 7961,
      "rays": 7962,
      "sic": 7963,
      "sip": 7964,
      "sard": 7965,
      "tical": 7966,
      "uv": 7967,
      "vents": 7968,
      "vlad": 7969,
      "voting": 7970,
      "wag": 7971,
      "wwi": 7972,
      "yama": 7973,
      "zip": 7974,
      "inf": 7975,
      "inu": 7976,
      "inated": 7977,
      "inary": 7978,
      "anch": 7979,
      "ancing": 7980,
      "erup": 7981,
      "theater": 7982,
      "rein": 7983,
      "rede": 7984,
      "retain": 7985,
      "recur": 7986,
      "retail": 7987,
      "reviews": 7988,
      "retired": 7989,
      "onia": 7990,
      "ativity": 7991,
      "isations": 7992,
      "istry": 7993,
      "islam": 7994,
      "oral": 7995,
      "orle": 7996,
      "esa": 7997,
      "esity": 7998,
      "escop": 7999
    },
    "merges": [
      [
        "t",
        "h"
      ],
      [
        "i",
        "n"
      ],
      [
        "a",
        "n"
      ],
      [
        "e",
        "r"
      ],
      [
        "th",
        "e"
      ],
      [
        "r",
        "e"
      ],
      [
        "o",
        "n"
      ],
      [
        "a",
        "t"
      ],
      [
        "i",
        "s"
      ],
      [
        "o",
        "r"
      ],
      [
        "e",
        "s"
      ],
      [
        "e",
        "n"
      ],
      [
        "a",
        "l"
      ],
      [
        "o",
        "u"
      ],
      [
        "a",
        "r"
      ],
      [
        "in",
        "g"
      ],
      [
        "an",
        "d"
      ],
      [
        "a",
        "s"
      ],
      [
        "t",
        "o"
      ],
      [
        "o",
        "f"
      ],
      [
        "i",
        "t"
      ],
      [
        "i",
        "c"
      ],
      [
        "e",
        "d"
      ],
      [
        "s",
        "t"
      ],
      [
        "l",
        "e"
      ],
      [
        "w",
        "h"
      ],
      [
        "o",
        "m"
      ],
      [
        "c",
        "h"
      ],
      [
        "i",
        "on"
      ],
      [
        "a",
        "re"
      ],
      [
        "s",
        "e"
      ],
      [
        "a",
        "m"
      ],
      [
        "v",
        "e"
      ],
      [
        "i",
        "l"
      ],
      [
        "r",
        "o"
      ],
      [
        "en",
        "t"
      ],
      [
        "b",
        "e"
      ],
      [
        "a",
        "c"
      ],
      [
        "o",
        "w"
      ],
      [
        "o",
        "l"
      ],
      [
        "f",
        "or"
      ],
      [
        "d",
        "e"
      ],
      [
        "y",
        "ou"
      ],
      [
        "al",
        "l"
      ],
      [
        "a",
        "y"
      ],
      [
        "e",
        "l"
      ],
      [
        "u",
        "s"
      ],
      [
        "i",
        "m"
      ],
      [
        "i",
        "f"
      ],
      [
        "e",
        "t"
      ],
      [
        "u",
        "n"
      ],
      [
        "t",
        "er"
      ],
      [
        "i",
        "g"
      ],
      [
        "m",
        "o"
      ],
      [
        "a",
        "d"
      ],
      [
        "i",
        "d"
      ],
      [
        "p",
        "l"
      ],
      [
        "o",
        "t"
      ],
      [
        "v",
        "er"
      ],
      [
        "i",
        "r"
      ],
      [
        "th",
        "er"
      ],
      [
        "t",
        "r"
      ],
      [
        "wh",
        "at"
      ],
      [
        "o",
        "p"
      ],
      [
        "u",
        "r"
      ],
      [
        "u",
        "l"
      ],
      [
        "k",
        "e"
      ],
      [
        "c",
        "e"
      ],
      [
        "p",
        "e"
      ],
      [
        "c",
        "om"
      ],
      [
        "es",
        "t"
      ],
      [
        "a",
        "g"
      ],
      [
        "at",
        "ion"
      ],
      [
        "s",
        "h"
      ],
      [
        "u",
        "m"
      ],
      [
        "th",
        "at"
      ],
      [
        "w",
        "i"
      ],
      [
        "f",
        "r"
      ],
      [
        "a",
        "b"
      ],
      [
        "c",
        "an"
      ],
      [
        "c",
        "t"
      ],
      [
        "a",
        "p"
      ],
      [
        "c",
        "on"
      ],
      [
        "o",
        "o"
      ],
      [
        "er",
        "s"
      ],
      [
        "i",
        "es"
      ],
      [
        "i",
        "ve"
      ],
      [
        "d",
        "o"
      ],
      [
        "wi",
        "th"
      ],
      [
        "ic",
        "h"
      ],
      [
        "t",
        "e"
      ],
      [
        "p",
        "ro"
      ],
      [
        "n",
        "e"
      ],
      [
        "c",
        "l"
      ],
      [
        "l",
        "y"
      ],
      [
        "ou",
        "n"
      ],
      [
        "t",
        "s"
      ],
      [
        "s",
        "o"
      ],
      [
        "m",
        "e"
      ],
      [
        "m",
        "a"
      ],
      [
        "u",
        "t"
      ],
      [
        "s",
        "p"
      ],
      [
        "wh",
        "ich"
      ],
      [
        "ig",
        "h"
      ],
      [
        "e",
        "x"
      ],
      [
        "l",
        "d"
      ],
      [
        "s",
        "u"
      ],
      [
        "m",
        "an"
      ],
      [
        "il",
        "l"
      ],
      [
        "h",
        "a"
      ],
      [
        "om",
        "e"
      ],
      [
        "q",
        "u"
      ],
      [
        "on",
        "e"
      ],
      [
        "st",
        "r"
      ],
      [
        "p",
        "er"
      ],
      [
        "at",
        "e"
      ],
      [
        "is",
        "t"
      ],
      [
        "w",
        "or"
      ],
      [
        "d",
        "i"
      ],
      [
        "l",
        "i"
      ],
      [
        "b",
        "y"
      ],
      [
        "re",
        "s"
      ],
      [
        "es",
        "s"
      ],
      [
        "a",
        "in"
      ],
      [
        "it",
        "y"
      ],
      [
        "you",
        "r"
      ],
      [
        "c",
        "o"
      ],
      [
        "w",
        "e"
      ],
      [
        "g",
        "e"
      ],
      [
        "s",
        "ome"
      ],
      [
        "l",
        "o"
      ],
      [
        "ac",
        "t"
      ],
      [
        "fr",
        "om"
      ],
      [
        "b",
        "o"
      ],
      [
        "f",
        "er"
      ],
      [
        "d",
        "s"
      ],
      [
        "an",
        "t"
      ],
      [
        "l",
        "ow"
      ],
      [
        "ar",
        "t"
      ],
      [
        "all",
        "y"
      ],
      [
        "g",
        "r"
      ],
      [
        "ou",
        "r"
      ],
      [
        "p",
        "r"
      ],
      [
        "a",
        "u"
      ],
      [
        "h",
        "e"
      ],
      [
        "p",
        "o"
      ],
      [
        "w",
        "as"
      ],
      [
        "as",
        "s"
      ],
      [
        "ha",
        "ve"
      ],
      [
        "a",
        "ch"
      ],
      [
        "ou",
        "ld"
      ],
      [
        "b",
        "r"
      ],
      [
        "f",
        "e"
      ],
      [
        "ou",
        "t"
      ],
      [
        "n",
        "ot"
      ],
      [
        "oo",
        "d"
      ],
      [
        "in",
        "e"
      ],
      [
        "er",
        "e"
      ],
      [
        "igh",
        "t"
      ],
      [
        "i",
        "p"
      ],
      [
        "k",
        "ing"
      ],
      [
        "h",
        "ow"
      ],
      [
        "as",
        "t"
      ],
      [
        "m",
        "ent"
      ],
      [
        "or",
        "t"
      ],
      [
        "ar",
        "d"
      ],
      [
        "2",
        "0"
      ],
      [
        "am",
        "e"
      ],
      [
        "g",
        "o"
      ],
      [
        "a",
        "v"
      ],
      [
        "en",
        "d"
      ],
      [
        "is",
        "h"
      ],
      [
        "p",
        "h"
      ],
      [
        "com",
        "p"
      ],
      [
        "i",
        "a"
      ],
      [
        "t",
        "im"
      ],
      [
        "the",
        "y"
      ],
      [
        "i",
        "v"
      ],
      [
        "re",
        "d"
      ],
      [
        "el",
        "l"
      ],
      [
        "d",
        "r"
      ],
      [
        "on",
        "g"
      ],
      [
        "i",
        "z"
      ],
      [
        "ic",
        "e"
      ],
      [
        "e",
        "m"
      ],
      [
        "mo",
        "st"
      ],
      [
        "an",
        "g"
      ],
      [
        "th",
        "is"
      ],
      [
        "c",
        "ar"
      ],
      [
        "o",
        "ther"
      ],
      [
        "ag",
        "e"
      ],
      [
        "w",
        "ay"
      ],
      [
        "m",
        "on"
      ],
      [
        "g",
        "re"
      ],
      [
        "b",
        "l"
      ],
      [
        "in",
        "d"
      ],
      [
        "wh",
        "o"
      ],
      [
        "k",
        "s"
      ],
      [
        "ther",
        "e"
      ],
      [
        "u",
        "p"
      ],
      [
        "t",
        "y"
      ],
      [
        "pl",
        "ay"
      ],
      [
        "an",
        "s"
      ],
      [
        "c",
        "i"
      ],
      [
        "man",
        "y"
      ],
      [
        "ow",
        "n"
      ],
      [
        "b",
        "all"
      ],
      [
        "f",
        "o"
      ],
      [
        "t",
        "a"
      ],
      [
        "c",
        "ol"
      ],
      [
        "h",
        "as"
      ],
      [
        "al",
        "so"
      ],
      [
        "c",
        "re"
      ],
      [
        "m",
        "ar"
      ],
      [
        "d",
        "if"
      ],
      [
        "oun",
        "d"
      ],
      [
        "b",
        "er"
      ],
      [
        "at",
        "er"
      ],
      [
        "i",
        "de"
      ],
      [
        "ion",
        "s"
      ],
      [
        "b",
        "as"
      ],
      [
        "c",
        "r"
      ],
      [
        "e",
        "ar"
      ],
      [
        "g",
        "h"
      ],
      [
        "if",
        "y"
      ],
      [
        "at",
        "ed"
      ],
      [
        "ve",
        "l"
      ],
      [
        "ac",
        "k"
      ],
      [
        "1",
        "9"
      ],
      [
        "mo",
        "re"
      ],
      [
        "ic",
        "k"
      ],
      [
        "en",
        "ce"
      ],
      [
        "u",
        "se"
      ],
      [
        "ou",
        "s"
      ],
      [
        "wh",
        "en"
      ],
      [
        "g",
        "et"
      ],
      [
        "b",
        "ut"
      ],
      [
        "d",
        "er"
      ],
      [
        "dif",
        "fer"
      ],
      [
        "op",
        "le"
      ],
      [
        "ab",
        "le"
      ],
      [
        "c",
        "k"
      ],
      [
        "it",
        "s"
      ],
      [
        "pe",
        "ople"
      ],
      [
        "the",
        "ir"
      ],
      [
        "w",
        "ill"
      ],
      [
        "li",
        "ke"
      ],
      [
        "b",
        "u"
      ],
      [
        "b",
        "est"
      ],
      [
        "f",
        "l"
      ],
      [
        "u",
        "re"
      ],
      [
        "tim",
        "e"
      ],
      [
        "d",
        "u"
      ],
      [
        "l",
        "ist"
      ],
      [
        "t",
        "en"
      ],
      [
        "for",
        "m"
      ],
      [
        "ul",
        "ar"
      ],
      [
        "in",
        "ter"
      ],
      [
        "cl",
        "u"
      ],
      [
        "i",
        "e"
      ],
      [
        "c",
        "oun"
      ],
      [
        "at",
        "es"
      ],
      [
        "the",
        "se"
      ],
      [
        "s",
        "er"
      ],
      [
        "s",
        "pe"
      ],
      [
        "re",
        "n"
      ],
      [
        "a",
        "k"
      ],
      [
        "i",
        "an"
      ],
      [
        "ou",
        "gh"
      ],
      [
        "a",
        "f"
      ],
      [
        "f",
        "ol"
      ],
      [
        "p",
        "op"
      ],
      [
        "c",
        "us"
      ],
      [
        "con",
        "s"
      ],
      [
        "d",
        "ay"
      ],
      [
        "be",
        "t"
      ],
      [
        "w",
        "ater"
      ],
      [
        "e",
        "p"
      ],
      [
        "al",
        "s"
      ],
      [
        "ac",
        "e"
      ],
      [
        "n",
        "o"
      ],
      [
        "wor",
        "ld"
      ],
      [
        "ver",
        "y"
      ],
      [
        "l",
        "and"
      ],
      [
        "g",
        "en"
      ],
      [
        "id",
        "ent"
      ],
      [
        "ing",
        "s"
      ],
      [
        "j",
        "o"
      ],
      [
        "fol",
        "low"
      ],
      [
        "s",
        "ion"
      ],
      [
        "it",
        "e"
      ],
      [
        "ne",
        "w"
      ],
      [
        "ic",
        "al"
      ],
      [
        "p",
        "ort"
      ],
      [
        "u",
        "e"
      ],
      [
        "en",
        "g"
      ],
      [
        "i",
        "le"
      ],
      [
        "k",
        "n"
      ],
      [
        "s",
        "k"
      ],
      [
        "p",
        "le"
      ],
      [
        "t",
        "w"
      ],
      [
        "an",
        "ce"
      ],
      [
        "l",
        "a"
      ],
      [
        "c",
        "al"
      ],
      [
        "in",
        "clu"
      ],
      [
        "er",
        "ic"
      ],
      [
        "f",
        "ir"
      ],
      [
        "h",
        "el"
      ],
      [
        "d",
        "at"
      ],
      [
        "or",
        "s"
      ],
      [
        "i",
        "b"
      ],
      [
        "p",
        "ar"
      ],
      [
        "s",
        "y"
      ],
      [
        "l",
        "es"
      ],
      [
        "cl",
        "ass"
      ],
      [
        "e",
        "v"
      ],
      [
        "it",
        "ies"
      ],
      [
        "us",
        "ed"
      ],
      [
        "an",
        "y"
      ],
      [
        "wh",
        "y"
      ],
      [
        "e",
        "ach"
      ],
      [
        "re",
        "e"
      ],
      [
        "differ",
        "ent"
      ],
      [
        "c",
        "ess"
      ],
      [
        "p",
        "re"
      ],
      [
        "ar",
        "y"
      ],
      [
        "in",
        "di"
      ],
      [
        "il",
        "d"
      ],
      [
        "ro",
        "w"
      ],
      [
        "c",
        "or"
      ],
      [
        "te",
        "am"
      ],
      [
        "a",
        "ir"
      ],
      [
        "str",
        "ing"
      ],
      [
        "am",
        "eric"
      ],
      [
        "follow",
        "ing"
      ],
      [
        "fir",
        "st"
      ],
      [
        "t",
        "ain"
      ],
      [
        "p",
        "res"
      ],
      [
        "ul",
        "t"
      ],
      [
        "pl",
        "an"
      ],
      [
        "th",
        "an"
      ],
      [
        "h",
        "igh"
      ],
      [
        "o",
        "ver"
      ],
      [
        "g",
        "ive"
      ],
      [
        "wh",
        "ere"
      ],
      [
        "d",
        "es"
      ],
      [
        "c",
        "ur"
      ],
      [
        "n",
        "ing"
      ],
      [
        "ma",
        "ke"
      ],
      [
        "coun",
        "tr"
      ],
      [
        "pop",
        "ular"
      ],
      [
        "p",
        "art"
      ],
      [
        "y",
        "ear"
      ],
      [
        "it",
        "ion"
      ],
      [
        "po",
        "s"
      ],
      [
        "o",
        "s"
      ],
      [
        "the",
        "m"
      ],
      [
        "g",
        "ood"
      ],
      [
        "ation",
        "s"
      ],
      [
        "i",
        "re"
      ],
      [
        "f",
        "am"
      ],
      [
        "ent",
        "s"
      ],
      [
        "le",
        "t"
      ],
      [
        "it",
        "ed"
      ],
      [
        "w",
        "ar"
      ],
      [
        "as",
        "e"
      ],
      [
        "c",
        "au"
      ],
      [
        "oo",
        "k"
      ],
      [
        "dat",
        "a"
      ],
      [
        "f",
        "in"
      ],
      [
        "l",
        "ar"
      ],
      [
        "ty",
        "p"
      ],
      [
        "c",
        "es"
      ],
      [
        "v",
        "is"
      ],
      [
        "r",
        "y"
      ],
      [
        "u",
        "st"
      ],
      [
        "f",
        "ul"
      ],
      [
        "d",
        "is"
      ],
      [
        "e",
        "f"
      ],
      [
        "b",
        "re"
      ],
      [
        "cau",
        "se"
      ],
      [
        "l",
        "ong"
      ],
      [
        "on",
        "s"
      ],
      [
        "i",
        "al"
      ],
      [
        "wor",
        "k"
      ],
      [
        "to",
        "p"
      ],
      [
        "l",
        "l"
      ],
      [
        "sh",
        "ould"
      ],
      [
        "m",
        "in"
      ],
      [
        "ne",
        "ed"
      ],
      [
        "m",
        "y"
      ],
      [
        "id",
        "er"
      ],
      [
        "ident",
        "ify"
      ],
      [
        "e",
        "le"
      ],
      [
        "g",
        "er"
      ],
      [
        "m",
        "er"
      ],
      [
        "c",
        "le"
      ],
      [
        "ol",
        "d"
      ],
      [
        "p",
        "ers"
      ],
      [
        "c",
        "at"
      ],
      [
        "do",
        "g"
      ],
      [
        "in",
        "to"
      ],
      [
        "we",
        "en"
      ],
      [
        "ad",
        "d"
      ],
      [
        "bet",
        "ween"
      ],
      [
        "cus",
        "sion"
      ],
      [
        "way",
        "s"
      ],
      [
        "m",
        "ay"
      ],
      [
        "gre",
        "at"
      ],
      [
        "pro",
        "v"
      ],
      [
        "st",
        "ates"
      ],
      [
        "per",
        "cussion"
      ],
      [
        "hel",
        "p"
      ],
      [
        "ou",
        "se"
      ],
      [
        "0",
        "0"
      ],
      [
        "n",
        "ame"
      ],
      [
        "su",
        "ch"
      ],
      [
        "th",
        "r"
      ],
      [
        "mo",
        "v"
      ],
      [
        "ch",
        "ar"
      ],
      [
        "pro",
        "du"
      ],
      [
        "c",
        "ity"
      ],
      [
        "in",
        "t"
      ],
      [
        "il",
        "y"
      ],
      [
        "g",
        "u"
      ],
      [
        "c",
        "a"
      ],
      [
        "d",
        "y"
      ],
      [
        "of",
        "f"
      ],
      [
        "w",
        "ould"
      ],
      [
        "tr",
        "a"
      ],
      [
        "in",
        "str"
      ],
      [
        "c",
        "ent"
      ],
      [
        "c",
        "ould"
      ],
      [
        "h",
        "um"
      ],
      [
        "or",
        "y"
      ],
      [
        "g",
        "y"
      ],
      [
        "it",
        "al"
      ],
      [
        "wh",
        "ile"
      ],
      [
        "i",
        "ver"
      ],
      [
        "p",
        "en"
      ],
      [
        "spe",
        "c"
      ],
      [
        "s",
        "m"
      ],
      [
        "con",
        "t"
      ],
      [
        "k",
        "et"
      ],
      [
        "m",
        "us"
      ],
      [
        "in",
        "s"
      ],
      [
        "l",
        "if"
      ],
      [
        "un",
        "ited"
      ],
      [
        "n",
        "or"
      ],
      [
        "j",
        "e"
      ],
      [
        "do",
        "es"
      ],
      [
        "c",
        "er"
      ],
      [
        "an",
        "im"
      ],
      [
        "be",
        "cause"
      ],
      [
        "t",
        "ing"
      ],
      [
        "in",
        "k"
      ],
      [
        "al",
        "th"
      ],
      [
        "ch",
        "e"
      ],
      [
        "r",
        "un"
      ],
      [
        "if",
        "ic"
      ],
      [
        "ter",
        "s"
      ],
      [
        "ar",
        "i"
      ],
      [
        "s",
        "a"
      ],
      [
        "h",
        "ouse"
      ],
      [
        "y",
        "s"
      ],
      [
        "n",
        "um"
      ],
      [
        "ig",
        "n"
      ],
      [
        "tw",
        "o"
      ],
      [
        "h",
        "o"
      ],
      [
        "an",
        "ge"
      ],
      [
        "a",
        "z"
      ],
      [
        "ct",
        "ion"
      ],
      [
        "class",
        "ify"
      ],
      [
        "kn",
        "own"
      ],
      [
        "at",
        "ing"
      ],
      [
        "cons",
        "ider"
      ],
      [
        "instr",
        "um"
      ],
      [
        "t",
        "ell"
      ],
      [
        "c",
        "ap"
      ],
      [
        "am",
        "es"
      ],
      [
        "ab",
        "out"
      ],
      [
        "p",
        "t"
      ],
      [
        "w",
        "ell"
      ],
      [
        "m",
        "ed"
      ],
      [
        "w",
        "ere"
      ],
      [
        "fo",
        "ot"
      ],
      [
        "ic",
        "ally"
      ],
      [
        "com",
        "mon"
      ],
      [
        "l",
        "ang"
      ],
      [
        "s",
        "s"
      ],
      [
        "c",
        "is"
      ],
      [
        "f",
        "ish"
      ],
      [
        "in",
        "v"
      ],
      [
        "inclu",
        "de"
      ],
      [
        "el",
        "y"
      ],
      [
        "e",
        "ver"
      ],
      [
        "re",
        "g"
      ],
      [
        "wh",
        "e"
      ],
      [
        "r",
        "a"
      ],
      [
        "americ",
        "an"
      ],
      [
        "s",
        "n"
      ],
      [
        "at",
        "t"
      ],
      [
        "pers",
        "on"
      ],
      [
        "st",
        "em"
      ],
      [
        "ch",
        "o"
      ],
      [
        "g",
        "ame"
      ],
      [
        "the",
        "n"
      ],
      [
        "h",
        "y"
      ],
      [
        "i",
        "x"
      ],
      [
        "d",
        "ing"
      ],
      [
        "b",
        "an"
      ],
      [
        "gen",
        "er"
      ],
      [
        "b",
        "i"
      ],
      [
        "com",
        "e"
      ],
      [
        "ci",
        "al"
      ],
      [
        "m",
        "s"
      ],
      [
        "s",
        "al"
      ],
      [
        "bas",
        "ed"
      ],
      [
        "lang",
        "u"
      ],
      [
        "d",
        "on"
      ],
      [
        "ic",
        "s"
      ],
      [
        "f",
        "un"
      ],
      [
        "s",
        "un"
      ],
      [
        "th",
        "ing"
      ],
      [
        "sy",
        "stem"
      ],
      [
        "p",
        "u"
      ],
      [
        "de",
        "l"
      ],
      [
        "b",
        "a"
      ],
      [
        "am",
        "p"
      ],
      [
        "ur",
        "ing"
      ],
      [
        "sh",
        "ip"
      ],
      [
        "ta",
        "ke"
      ],
      [
        "or",
        "ts"
      ],
      [
        "c",
        "all"
      ],
      [
        "st",
        "and"
      ],
      [
        "1",
        "0"
      ],
      [
        "c",
        "y"
      ],
      [
        "e",
        "as"
      ],
      [
        "fo",
        "re"
      ],
      [
        "ser",
        "v"
      ],
      [
        "com",
        "m"
      ],
      [
        "u",
        "ally"
      ],
      [
        "a",
        "w"
      ],
      [
        "l",
        "ight"
      ],
      [
        "at",
        "ive"
      ],
      [
        "f",
        "ood"
      ],
      [
        "re",
        "l"
      ],
      [
        "countr",
        "y"
      ],
      [
        "re",
        "qu"
      ],
      [
        "s",
        "ol"
      ],
      [
        "es",
        "e"
      ],
      [
        "h",
        "ar"
      ],
      [
        "s",
        "ou"
      ],
      [
        "ation",
        "al"
      ],
      [
        "w",
        "r"
      ],
      [
        "w",
        "on"
      ],
      [
        "th",
        "ree"
      ],
      [
        "m",
        "at"
      ],
      [
        "je",
        "ct"
      ],
      [
        ")",
        ","
      ],
      [
        "s",
        "im"
      ],
      [
        "st",
        "e"
      ],
      [
        "st",
        "ate"
      ],
      [
        "t",
        "re"
      ],
      [
        "p",
        "ot"
      ],
      [
        "le",
        "ar"
      ],
      [
        "t",
        "ur"
      ],
      [
        "e",
        "very"
      ],
      [
        "on",
        "ly"
      ],
      [
        "instrum",
        "ent"
      ],
      [
        "ke",
        "y"
      ],
      [
        "g",
        "g"
      ],
      [
        "s",
        "ing"
      ],
      [
        "thr",
        "ough"
      ],
      [
        "v",
        "en"
      ],
      [
        "se",
        "t"
      ],
      [
        "m",
        "et"
      ],
      [
        "ma",
        "in"
      ],
      [
        "he",
        "alth"
      ],
      [
        "ic",
        "t"
      ],
      [
        "ex",
        "am"
      ],
      [
        "b",
        "ack"
      ],
      [
        "k",
        "es"
      ],
      [
        "l",
        "ess"
      ],
      [
        "p",
        "ur"
      ],
      [
        "ag",
        "es"
      ],
      [
        "ib",
        "le"
      ],
      [
        "s",
        "to"
      ],
      [
        "foot",
        "ball"
      ],
      [
        "d",
        "own"
      ],
      [
        "n",
        "et"
      ],
      [
        "v",
        "ing"
      ],
      [
        "ic",
        "es"
      ],
      [
        "ar",
        "ound"
      ],
      [
        "s",
        "w"
      ],
      [
        "of",
        "ten"
      ],
      [
        "i",
        "o"
      ],
      [
        "h",
        "ol"
      ],
      [
        "st",
        "art"
      ],
      [
        "iz",
        "e"
      ],
      [
        "f",
        "act"
      ],
      [
        "u",
        "al"
      ],
      [
        "en",
        "s"
      ],
      [
        "20",
        "2"
      ],
      [
        "bo",
        "th"
      ],
      [
        "h",
        "er"
      ],
      [
        "un",
        "der"
      ],
      [
        "fr",
        "i"
      ],
      [
        "o",
        "se"
      ],
      [
        "o",
        "b"
      ],
      [
        "w",
        "ind"
      ],
      [
        "th",
        "ings"
      ],
      [
        "ar",
        "k"
      ],
      [
        "lo",
        "c"
      ],
      [
        "sh",
        "ow"
      ],
      [
        "c",
        "ed"
      ],
      [
        "re",
        "ad"
      ],
      [
        "f",
        "ound"
      ],
      [
        "lif",
        "e"
      ],
      [
        "on",
        "es"
      ],
      [
        "a",
        "th"
      ],
      [
        "d",
        "a"
      ],
      [
        "h",
        "and"
      ],
      [
        "d",
        "uring"
      ],
      [
        "b",
        "ir"
      ],
      [
        "p",
        "ow"
      ],
      [
        "se",
        "l"
      ],
      [
        "ter",
        "n"
      ],
      [
        "ma",
        "de"
      ],
      [
        "v",
        "ari"
      ],
      [
        "sp",
        "ort"
      ],
      [
        "a",
        "ther"
      ],
      [
        "m",
        "u"
      ],
      [
        "s",
        "ur"
      ],
      [
        "b",
        "en"
      ],
      [
        "fam",
        "ous"
      ],
      [
        "sm",
        "all"
      ],
      [
        "re",
        "ct"
      ],
      [
        "as",
        "on"
      ],
      [
        "im",
        "port"
      ],
      [
        "h",
        "is"
      ],
      [
        "il",
        "ity"
      ],
      [
        "be",
        "ing"
      ],
      [
        "v",
        "al"
      ],
      [
        "one",
        "y"
      ],
      [
        "h",
        "ere"
      ],
      [
        "t",
        "on"
      ],
      [
        "b",
        "le"
      ],
      [
        "w",
        "in"
      ],
      [
        "w",
        "ood"
      ],
      [
        "g",
        "an"
      ],
      [
        "g",
        "ar"
      ],
      [
        "p",
        "ol"
      ],
      [
        "gre",
        "en"
      ],
      [
        "sp",
        "orts"
      ],
      [
        "v",
        "id"
      ],
      [
        "st",
        "ar"
      ],
      [
        "con",
        "d"
      ],
      [
        "f",
        "ive"
      ],
      [
        "in",
        "a"
      ],
      [
        "us",
        "ing"
      ],
      [
        "act",
        "iv"
      ],
      [
        ")",
        "."
      ],
      [
        "pro",
        "cess"
      ],
      [
        "import",
        "ant"
      ],
      [
        "b",
        "ar"
      ],
      [
        "f",
        "i"
      ],
      [
        "num",
        "ber"
      ],
      [
        "v",
        "i"
      ],
      [
        "be",
        "en"
      ],
      [
        "af",
        "ter"
      ],
      [
        "whe",
        "ther"
      ],
      [
        "n",
        "am"
      ],
      [
        "pl",
        "ace"
      ],
      [
        "n",
        "er"
      ],
      [
        "s",
        "of"
      ],
      [
        "as",
        "h"
      ],
      [
        "year",
        "s"
      ],
      [
        "b",
        "or"
      ],
      [
        "am",
        "m"
      ],
      [
        "20",
        "1"
      ],
      [
        "c",
        "tr"
      ],
      [
        "m",
        "il"
      ],
      [
        "ol",
        "o"
      ],
      [
        "ment",
        "s"
      ],
      [
        "b",
        "ook"
      ],
      [
        "n",
        "ational"
      ],
      [
        "v",
        "es"
      ],
      [
        "st",
        "u"
      ],
      [
        "su",
        "p"
      ],
      [
        "spec",
        "ies"
      ],
      [
        "me",
[...]
